node {
  name: "global_step/Initializer/Const"
  op: "Const"
  attr {
    key: "_class"
    value {
      list {
        s: "loc:@global_step"
      }
    }
  }
  attr {
    key: "_output_shapes"
    value {
      list {
        shape {
        }
      }
    }
  }
  attr {
    key: "dtype"
    value {
      type: DT_INT64
    }
  }
  attr {
    key: "value"
    value {
      tensor {
        dtype: DT_INT64
        tensor_shape {
        }
        int64_val: 0
      }
    }
  }
}
node {
  name: "global_step"
  op: "VariableV2"
  attr {
    key: "_class"
    value {
      list {
        s: "loc:@global_step"
      }
    }
  }
  attr {
    key: "_output_shapes"
    value {
      list {
        shape {
        }
      }
    }
  }
  attr {
    key: "container"
    value {
      s: ""
    }
  }
  attr {
    key: "dtype"
    value {
      type: DT_INT64
    }
  }
  attr {
    key: "shape"
    value {
      shape {
      }
    }
  }
  attr {
    key: "shared_name"
    value {
      s: ""
    }
  }
}
node {
  name: "global_step/Assign"
  op: "Assign"
  input: "global_step"
  input: "global_step/Initializer/Const"
  attr {
    key: "T"
    value {
      type: DT_INT64
    }
  }
  attr {
    key: "_class"
    value {
      list {
        s: "loc:@global_step"
      }
    }
  }
  attr {
    key: "_output_shapes"
    value {
      list {
        shape {
        }
      }
    }
  }
  attr {
    key: "use_locking"
    value {
      b: true
    }
  }
  attr {
    key: "validate_shape"
    value {
      b: true
    }
  }
}
node {
  name: "global_step/read"
  op: "Identity"
  input: "global_step"
  attr {
    key: "T"
    value {
      type: DT_INT64
    }
  }
  attr {
    key: "_class"
    value {
      list {
        s: "loc:@global_step"
      }
    }
  }
  attr {
    key: "_output_shapes"
    value {
      list {
        shape {
        }
      }
    }
  }
}
node {
  name: "Const"
  op: "Const"
  attr {
    key: "_output_shapes"
    value {
      list {
        shape {
          dim {
            size: 10000
          }
          dim {
            size: 3
          }
        }
      }
    }
  }
  attr {
    key: "dtype"
    value {
      type: DT_FLOAT
    }
  }
  attr {
    key: "value"
    value {
      tensor {
        dtype: DT_FLOAT
        tensor_shape {
          dim {
            size: 10000
          }
          dim {
            size: 3
          }
        }
        tensor_content: "!}\324\277\353\367\214\276\255U\240\277\321%h\277\205#\026?\261uh\2776\023\230?<\367\206>|\002\221>\267y:\277\014\332\177?\267\024\241\277\326M\230\277l\274\223\277\234F\360\275g\371}>\036~\360>\242\025<>;g.\277F\234\366>o\345\227\277l\371p>\031\262M?\312E\201?\003l\300>S\354\200\2775\355(?^\260\265?\304@{\276\310\005\025\277\025\3676?D\372B\277\354\250\315=\204\010+?\'\241_>\035\034l?%tz?\334\\v\275\301\315\212>\252[\211?\026\344\237?\234\233\374>`\010\231?\3573\356>\305P\243?\0261\373\2777W\366=\267\005\272\276.\307(\277~aP\277\350Sz\277\350H\245?\177\257\300?8\241\n\276\263?t?\216\004K\276\367\347\013?\241\001\233\276h8g\276p3(?\342\010\246>\216\265\210\276\306j\262?;\260\202\275\312UT\274\360\366.\276/\0012\275\300\277\220\277\344\223\365<\362\2503\277\326\372\003\277N 6?\337\177\217\277\223\026\203\277\242\\0@\364\332\276?GR:\277a\266\361\277n\t\264?<C\020\277f/\261>T\277r\276A\035\274?\200\361\265\276\\\257\362\276\243-\256\276\367\227~?\255=\244?J\307\376\276\001\206J=r\224\351\277\217~\212>\274\333\322\276\3253\341>g\2314?\240\235\247\275@2\242\273\022\302h?\324\254\354>\337_\332\277\030l\271>!\200@<9I_?\214\212\247?.\225\224?u\222$?7\375\000\300C4O?\264\022\215\277g\303\275>\222\332\342\277\211M\314?\010S\302?Vm\003?\362\021\347\276\220\312\017@\204T\301\277\271\304g\276\375t\234\276\340\267\'\277\271Gw\277|\333\273?\222O\023?\222T\315>t\035M>\337\021!=\002\221\231?\350m1\277iL\207\277T3M\277\237\305X\277o\216\n\277\352N\335?\177\017\303>7\303\226\277\205\207\236\277\017n\372>\004\017\205\277\347rn\277\006\262\352>/8K\277@\317\240\277f\253W?\374f\217?X\223\211\277\367\316,?\302!\271\276Y\232\306?D\223i\275^\265\303\276\213\005n\276p\3158\276\360_\007\300O\3076\277\216\3342\2754\322A?\305U\203?\332E\206\276q\3268<\r\221\014?\252\357\037\277Ky\373\275\356Y\260?\215\330\257\277\030\\\332\275\212@,<\200\007\235\276m\231p?`@\021\276\027[j\276\263\"_<nc\336>\241\301\013?\237?\200=\324\340\274\276\024\344G\277XC\r\275\010>]\277\354o\335\275\2701\213?C\212\311\275\330^\323?5b\254\277\\S4>\035v\231?\021\246\260>l\267:\276\021>F\277\206\362\221=P\315\201\276\3340\027\277\207T\013\276\306\217\\?\t\267+?\240\204\265\276\020\324\366>\312\206\317\276\230\322\251\276k|\264>x\2161\275f\001\205>\233$\024\277\311\t\264?\033\316\230\277\032Ww\276\024T!?2\r\007@\226\340\247?.B\366>/\354\271?\355\262.?\251\246h=I|\300?i\274\333>\3640X\277\221w\302\277\376n\014?l\320i>+my?\027D\342>\362\010\317\276x\324\230=fo$?\340l^?P7\255>\'\243\r@n\022\001@\"\252\266\277\352g#?/V9?D\210\346>\021DI?\037(\371\276:\317e=\335\023\320\276\260\237\241\277c\277\375\276\010\261\001>\246j\000>\001$\327\275&n6?\346N\016@j\346\266\275\013\332/@\005hs\300J\203\370\276co\225\276\215\213\034=4\356)?#)*\277\031bG\2752\301\221?\376\224\007?\335\020\222\277\272\0033\277\232\024Q?\235\036\306\277&\337\212\277B6\204?\212St?\304rZ\277\203>a\277\031\023;\276Z\021\020@D\270\026@\337\241Q\277\212\333\013?M\373\237?\036\311!\2777(G\277\235\235\014>\022\361\002?\'\265\026?6\3777>\024\331\335\276 c\254\276Td\212\277\277.\t\276\274(\024\276\034\021\204?\"\336\275>\272)i\277\035\005\300\276\231\273q>\216\006\205\276*;\323?\324\005\202\274\020\374<\300\317G\377\277\277\005s>\320TV\300g\371\027\300\321\305\247\277C\341\315\277\254\3204\276a\375\'\276\223\207\350\277E\275h@\3262o?\372\3408\277|n\025\277t\264\206=z\3473?\342&\330?\237h\200?\352V\376=\231}\372\276\363\307d\276\010\034!\300w\322\242\275*O\233=p!\372?\300\331\215\277\037\177\227<\334\315)?B\005\321>\333\310B\276s\'\250?\345I`?@f\270\277\326\222\354\276\354\366\377?wA\233?\245v\235?\301y\226?>|\220\277\277L\007@_#1\300\025\241u\276_X\246=\241\272F\277\337-\023\300<\311\323\277\202g\333>\020RB>\333\201\\\277k5}?\370~\355>\267\037\300\277\214\314\250?e,\364\275\002\220J\277x\230c\277\274\017\212?o\026\226?\241\353X\277\302\237\023\277\022\267\357\276!\325\220?\316\232G?\345\037@\276N\257\240\277n\006)\276\037e\265?\372de?\321jv?\214V\211\277\255\010\225?\214\004\234>\241\037F?\224z\254?+E\211\277\313\006\207?\322\312\215?\"B\345\274\\v)\300\232h\033\300=Z\n?\367O\005\277\206\256}\277\365G\352=\340\341F\277\220\327\251>\360Q4\277\031zB> 5!?\370\246\264\277\373\360\225\277\267\200\306\277\321\000\311=\267hh?\3136\212\277\253/\330=\307\014\366>\241m\237>4\244\212>\272-C\277\320\035\354?#\346\036=\316-\212>\010\340\262=\336\241\026?J\273\273\277\t\3269\277n\236\201\277d\364\002\3001\334b\277\330%\007\277xn\207?\266\321\375>^\006i\277\034\"\013\277E&\275\275D\364\262>\264\250\252?\014\361\212\277i\004\265\277\010\355D\277B\027\254>y\211k?\362=\217\277n\301\212?K\340\024\277\261I\363?E\316\341\276.d\037?\017\010\317>U\'\257\275F\307\364\276r\327\265?\037\245V>\312\004w?\236\366\246\277_\337\317?\234\214%>\233s\240\277]l\366>\006\302\235\276#s;\277\021\200\'\276\231\236\034\276\244\020d=>\313\213>\017Q\325?\035\327\244>\030J\213\276\206\367\222=4\200\251\276\014+\004@b\035\330?\264\234)\277ej\210>3\245\017<\355Me\277\255\374q?\032\2736\2758\226\266?zE\321\277a\004\274>\242\031c\277K\323\255\276t\376\346?7\223\000?\331\017\351\275\316)\347>\"\017\375\277\263\024\007?\305\3205?\234\205\271>$\210\211?\352n\031@\0076\205?w\324\337>\027/;\277\356\213\262\277a\271#=\255[\250\277N\370z?2\016,>\276;\212\277_\337f?\225\371\366\276\237\246\315\277\343\210R\275\255\000\362?\354\276\313?\311[P?\330\307.?\266Zs?S\367x?v~W?\277\"\312\277~\211\035\277oM\245?f\307v?\264\375\340\276\335\267\273\275c\211\010?\250\337\241\277a8J\277\315\303\327>\242d\205>Z\225\022\276\301?\355?F\257e\277\251\257S?JE\230>V\002\371=\270\324\325\277l\034\277\277\356n\262\277\335,&?\022S\242\277\211Ua>/W\254\277\227\257\340\276s1\214\277\003\217\020?\347{u>\226\024\031\276\233\265\275?\206L8?cn1\277\177\324\262\275\210e\230?\031\226\271?\212g\013?Z9\371\276\313\247\005?\331\214\255\276\304\3148?u\316\206>G \321?N>\265\276\220\0039\277!\241\273>b}\374\277\305\347\220>\214*\t\300R\267g\277_\367\273\276\212\215\020>fMc\277\006u\233?\270v*>\270\300\316\276\000\303X\276\220\214\365\275\207\005N\276\362@\033\300\000\307L?K\030#?\262\266\277>\030\266\n@\t(2?T+\027?\276=\r\277\262\031\300?\2671w\277\375\027\227?\004\343N\277\357E\260\276\254I\307?\266\200\227\277\010\345\303\277\241\245\223>}\300{>&\217\225\277\315\202\241\276\206I\251?}\036\210=\316\016\004@\020\\\360\277\245\276\035\300\330\001\006?\344P&\276j\205\327>LM^?\003a<\277Kf\202?\250\312\256?\343L\215\277\353fT?uF\300\277,\344\243>u\300\022@\306\247S\277x1\023?\353 \314\276\024\204@\276nd\277>\002\213\010\277\244u%\277Q%\351\277$\215R?\250\326S?\335\242\261?\032@\304?\255|Y\277\020\361=\276\234\177\372;\034\274\373<+\350^\277\000\013\260>\345\305\005\277\242\335\033\277\207g\336>\216e\354\277\360I\367\277V\237\027?O\260U\277\236\347\200?\225\371\032?\2712\031\300\301d\372>t\351/?\036L2?\023g\013>\220\025p?\320\310\335< \005\226?\020}\262?\311\025\240?\220V\353>\213\325\331>\311\341?\276\333\033\211\276\346\202\211\2771\246\305\275\347\014\337?K\234>?\034V\030=\231\310\224\277\034PV>\370(\212\277\007(\262>\356mn?\3447\001@\326r\364?\276\252g?\352%\016\300\263\356\221\277F\250\221?\'\332H\277t\030\246>\271#R?\006\266%\276Q\005\323\2767e\202>|E\362\276\213V\005@\344\362\032?\002\243\022?\244\267\035?z\355E@~\323\366\276\005\340\223\2764\031\240\275\031\036\327\275/\036\302>\236\307\305\277t\312e>\034\010\030>U^\300\276\2536\231\276FR\245\276gC\244>\320\350E?\017\356\216\276i*5?\304y\323>+P\221\276?\001q\276d`\233\277\246U@\275l\363\n?x\305\361\276\312`\264\277\020\345\t\277\035B7>=\326<?\334\301\364>\212#\217?a9\017?\265\217\035\2775~\233\277\366\212\177\277\014I\264?a\343\237?\027,\237\277g\236s?S\254%\277M\216\274\277\022J\327?r\244\374>\2765\316>\223g.\276\n\310(\277]:\224\276\324)%\277\260\204`\277\000\234{?t\230Y>As\376\276\252\277D?\225\320,\277z\250&\277\302\002\007\277\274\3310\275\311\226\374=)\0356\277\235a\225?\221\006\205?\364O\205\277\r\224\"\277n\320\227\277\302~\232?\030=\003?\017\020\322\275\027\030\312\274\210\321<\277\275H@\275\341\003\246\276\214\324t\277\200f\206?\177\216\257>K\322\221\277Q\253\222\274}P\203?\003\367\262\277\245;\032?02p\277w\205\261?\357\005\213?\254\215o>\333\2464\276\030\360[>\020<c=\316*\271?\321%\211\276\232\036\263>\3314e?G]v\276U4\233\276~\336U?\r$\276\277U\250o?\035\332\013\277\021a\266?8P\221?\360\007\227>\240\370\336\277e\251\023=K\rp\277\342\246\021\276%\\\336\277f\303\\\276\036w\346\275?8\036\273\026\211\262>N\234C?6\341\274>\"\320\253\276\000-\300=\305\027\303\277%\323\323\276\240\242g\277\331\301\240\276|%\355>\346AH?\275\330\003\2772r_>_\027\267=\325\261Y\277\322\242G\275\027x\245=)\017h?\325s\n?\254\273\271\277P\362=?N\334\265\276\\\2024?\204C\t@\342\207\257=\333\207r\275\352\002\237\277\n\023\266\277\014\361e\276\346\303\310>\361C\347\276\362D\307\276-\221\350\277H\017j?\362\247!\277\317a\255?q\310\330\277\260\014\255\276\266\362\326>9\205I\277\2420\001\276\350\352\246>\017\215R\277\270\232\036>\271\333\022\275\231\265\364>d~\210\277\252\336\270\275M+\202\276\221\2739>\227M\275\277\373G9?\337\330\251\276\321\'\366<\200p\275\277\"\311\215>\203\302\010@\373\221?\277vg\001?\000!\367=\344b\234?\247m_>Zt\375>)\003??1\302\332?\371\363\000@J|\200\277\213]\216\275g&`?\347\205\312>\035\215(\277h\305 \277\242\022\224\277\252\306q?\304\316\243?w\302+\277\270\235\347?QKG?\212\373\014@\225\334\231\275^J\204?\355\r\213?\302\014D?y\243[\277\254\377\022\300\353\234\226?\014x\301\276\235%\023?\332p\242?\035\030\033?^\255!>a\227\013\276\014\334\230\2771\351\251>\376\363\246\275\336\230#\276\356\306Z@\215\211\206>7\212\007\300kc\215\274i>b\277 [\021\277\303:\321\275,\346\362>\313*\350>_Q\231?\251\301\205>\'\021\000\277+\225\336>-+\244>\352\323\001\300\371h\353\276\013h{?]d\214\2750e+@\220C\203\277N\252\264>\242^\177\274\013O\327>\340[\372\276\205b\317\277I*\255?/\206\303?\231\203\275\276\021\220}?0I\357\276\364?\005\276\024\267\255\277_|y?\303\010\247\277VUB?dX\001@\367\n\354\273\002\365\267\276\002\240b\277 \346I\277\205q\377>\242\035x\277\275\031\231?\233AW\277\204\321\215?`\253w\276\265Y >\010{B\277_\202\206?rM\326\277\363\001|?\202\372\204?\024\216\234>,\346\323;6\371d?|\225\256>]S\000<\265+h\276\261\026\005\277lCQ?\352=\024>\260#\323\276-\266\356\276\322b\306\275\330\\7?\311c\000@/\276\003\300\273\364\275>x\345\302>\333\310$?Jj\203?B\312\221\277\\\037\013@\033\260\206\276\275\n\335\277\263\262\316\277@\255\n>\266\0211\277cY\371>6\2175\276\317\352\241?5\266\312?\312\363\320\274d\030\010@w\362\016\276\0260\000\300\302\353\033\277\373,\t?\036\322\330>.\275\334\276R\276\264<ml\242?wg\035?\2324\214\277\303\274\026@\2164\337>\023`\317\277\305\225W\277\234\236p?\244\346\016\277\304\2542?#\332^\2777\326h\277\261r\251\275f\326\276>\001\314\276\277:\233E>\007\270\007\277\270x\222>\327p\353\276\370UH?\214,\356\276\322\036\317\277\031O\">:V\370\277\366A}\276\034# \277\266\215\221\277\013\334$\300P_\033?q&\225?\360\253\336>\017\345W\277\222R\365\277\020\303\365\277u*)\277\tJ\030>Z`\023?b{\033?aF\276?\254\202M?\270\360??\350W\016@\241\324\275?\034\357\213\277\333\3455@k\235\034\277\355\333\037?\244\210\257\277LA6\277\252\235\000@R\024\255>\363\017\021\277%\222\032\277\343\nj>/\327&=\331\226\213\276\307\000Z>\335k\032?\312ty;\326%P\277^o\264\277\374\020\306\276\314\016\365>\026\346\322>\342T\256\276x\023\250\277\373\354\243? \253\020>\357\341\223?\314F\311\277\355\251\253\277X\362+\276\376\337\227\277\310Ao\277b\212\350>\372A\000\277$\332\t>@\016\240?\206d\320?6i\026?\022,Y?\000}\241?W,\302?i)\315>\021\237\246>w~\032\300/ZM?\322\261\273\276\214\266e?;\356\327\276\375-\247>\n(\274?\322\243\227>\025m\361\276\355G\210?\335\350h?\377X\"?\323{I\277\237\"E>B\363\221?\213\377r\275,&\227\277Q\257I?G\016S?\340eC\277\300}a\277\206\242\235>\317\212d?$\034\024\277\360d\246?\370\361\205=\366\336c\277\345\340\330\277]3?@|q\027?Qq\316\276\213#\023?\005B\214\277S\213r?f\237\000\277\346i\244>^\320\266>\220\252\204;\210E\361\277m\205\341\276\264\031\311>HP\327\276\215\304\353\276{\247\211\277\251%\261\276\032OF\275\354>!\276\023\026\211?t\226\220\277\243\023\316>\355\242\334\276\250\\\253\277\320YB=[\350\312>\'\333\241\277j\021\006?L\277\035?\350\326Y?\335%\311>y\027\361>\026\266(=0\234C\275\217\343\320\277\222\236\001\300I\206\240\277K \034>\363\365\260\274\215jq\277zn-\277\013\250\323?g\342*@\322\344\347\277x\307\363\276\214%\204?\tZ\360>F\254\243?\037\306\331>W\021D\277\024\272\376=M\207\330=\301\341P>\371\251}>\021_\272?W@\204>\003\344\211?\313\216\020\277\235D\355\277\"\266\006?\270\343\247\276H\303\201\275\360\277[\277\200\247C\277u\371\244?\017N\310>c\226u?~\201K>\230\275\353\276\202\376\030@\317\301\245>>\242\347\277b\300\273\277PG\213\277V\244\365\276l\304P\2773\316\033<w\227<?\253r\211?\214!G?\305R\014={\245\035\276Zc6\300\177Lo>\2245\211?\352\030l\277\372\207\230\277?\027P>o#\001?\207Q\200\276v\017\005?\204%\000\276\240\337;\275\256\323\036\277j\233\376=\357\370\251;\216\233y\2751F\034\277\261\350\017\300 a\303\276w\202\302\277NR\222\277`O\203?\366\362x?\376\014\277=JM\202>\217\260\254?\265\225\"\276\354-\202\277\216\025\326?&\227\032?\326\223\001>\366<\317\277e\304\t\276|?%\277\367\031F\276\363\205x\2779v\004\277\022\347\315>\353\276\231\277q\332S\277\236\030\\\277%\263\207>x/\034?q\251\320\276\203G\027>O1\374\276b\236\312\277\217\337\'\277\004.L?\267\033\023\277\212\026\247\277\025\370e?\242\354o?\330\003\251?\355j\257\276Y8\344\276\0226\224\277=\027\241?0;E?\'dV?\244\347:?\363\351Y\277\004\373\034\276j\375\270\276\006\206\304\276o\330\264<\332U\330\277\325q\240\276\317\217\037\277\220n\002\276nYD?i\307\315?~JU\276X5\347\277I+\204?I\346H?*\322F\277\234k\330\274\221\213L\277\223\025*\277T(\003\276\033\216~?\027\212\273?\216\022\232>o%\020\2775\366D\277\263\375\340\276<\2556?\016\363\235?~?L\277+\306z\2778<D\276\352\350\267>\026\210\r\277\tUM>\216\352\365?\014\330\036\277\026vt\277\376\327\003?\023\303v>\235\0068=n\002i\277\227U\330?\010\271\225\277\025\304\207\276\250\343\272\277\021\255\235\276\374\327\331>\377p\242\277Q\221\373\277\026\202\021\277\341m\320\277\346\206g\2765\240\247\277\367\305\270\277\357\3246?W\366\236\277\347\357b?Zf&>\321\314\236>\3519M\277\207\221\006\300\207\320\202\277`T\220>\025\206\364\275\304v\231\277q\332\366\276\207\362(\277F\367\'\300\r\274\232\276\266\0242\276\250\2156?5(\030?\252\356\212?t\362\217\275\263Y\224=\342\341H\2762\363\315?\353*q\276G|8?\272\311R?c9|?\262\250K?\365\016\331>\371^&?\330\021\217?\372(\315\277\276\217\322?D\023w?VJ\240\277z\376\302>\304\304\252?\362):>\237|y\277\014\362\255>*\247\216?\227^\334\276\034\344\334?gor\277\233\247*\276_&[\275\224W\335?\232Y\225?\276\231\257?3\t\177\277Sn\372?\004\333\"?K\001O?\301A\333?\301\375\242>\213\036\215\276\311/\206?\305\242x?pJ\036\277\025m\352>\212p\265\276\244&\343=\242:g\277\0036\262\277\203\240w?V\"\273\277if\367?\313\226\246?E>\345>\306}\201\276\273\337p\277l\177\034\276\005\346l\277wk\242\277\004\034\213\277U\010\255?@\337\026>\027\357~\277\222\030\"@ \032@?#\305`=\031\006\231\277\352\300\204\276\240\224\200=}H2?V\345\267?4\314\231\276\307L\322\276\257\344\000?\236<J?\245Hk\277\034\rh?f\322*?\357\210\251\276\\o\007\277\314\373\243\277I\031\254?\330\033%?\363C\014@\366\031{?\3044\346\277,\200-\277\303\360\017?{b\213\277o\355\200?C*\'?\210:\321?\320\nP\277\260\"\272\275\001$b>\037\220\020?\225h\245\277{J\270\277\3149i?7\263\241>-\007:\277\nf\341\274{\354\336>\345\326>\277\022\253\335\277\\j\367?3\234\213\277{\030~?~\274\324>\276\272\"\2768\206\024?N\254)\300^Ns\277\017\000\332>\360\225m\277w\317\004@\202+\354\276\0142\255\277\203E\027>\212F(\276\224\333O?\376\2616\277\0240\214>\317\020G\276fF4>mZ\300?/7)?\001\275\316\277\2518\\\274f1B\2771\0059?\364\206\333\277e\251\341\277M\001\253\276x\207\033\277\374&\343>\355{d?\277G>?\013$\251\277\326H\361\277\365\345D\277\030\267\030\275\267\034g?\332\327\207\277\024\215[?\3274\307\277CJ.<m1\222\276e\307\013\300PO\207>\223\3404\276`\372\350>s\366\025\276+z\301\276\010\3402?n\220\230>\037#\234>\030\362\353\276\\\215\207\276u7O\277\345,K>\'26?\360\3108\276\217\273\224>\365\276=>\253e\230?\207\233\212=\033\357\337\276\004\326&\277]\017\017@s~y>\336)\034?\361B\202\277d\271\345>\343`u>\357\017\034\300\312\"\364?\023h\035?o\"2?\024\037\026\276\260\032\212?=\214^\277\001\304\305?:<\230\277J\322!?gk\312\277\360\207\227?\202!\n@~\205\036\300>\212>>\322\010\316\276Ty\246=\337L\017\277\273\240_\276A\266\032?\362\005\021\300\034\311\214\277>\312\332=\r\276\037\277\036n,=s=\350?,x\001\300E\3454\277\266q\214>\240\236\373\277Z\016\035?@y\r\300\2225\341=\371\303\227>\374\317\266\277\227Y\252=\243\005\t?\020\256p\277>8\256\276\030\307\001@\000\254\203>;x\277?\214\266\204\277&\250\341>\334?\224?\032\003\025>0\264\363\276\234/\010\277:\336\360?y\375\326\277\327\347\310\276\245\2700\300\376\3313\276\210\274\353?\355\027G?\t}\027\300#/\222?\242\344\006?6\304\r\277\237\000%\277\304\263L=8\356H\277\351\256\246\276H\201\255?\023\013\227?\226\244.\277IP\234=\023\303\266\276\3556k\276\323C!?Z\330\235\277z\356\243\276c\222:?\224;\200?\223\031\377=\223k\332?,F\331\277\324&\005\277!\334k?\364_\347>\250\225\306?\261/4?\000\027\026?:\013\306?\345\004i\277\345\2329\277\3702\324\277\324\213\025\277\003\254\211?B>\213\277\200w\251>\201\036\351?X\333\370\276\341\214\024\277\204\244\007\277\266t\246\277h\207\035?\256@\265?\022\213\032\27793\314\275Rbl?W\255\n?L\307\354?\362\301\000>\016\236\204=+0D?\030D\303\276C\276\230>\216Z\337\276z\360A\275\032\362T\277\241\220\316\277\2500M>W\221D@x\271\303?\031\231\307?_\305\001@\0220\335\277\331\006$>\323\340\256\277Z\376\205\276\3242\235\277 5z=\333\005\307?\014\366\344>x\247\243?t:\212?ir\226\277t\310\"\274\006\222(\275\237B\030@H\004p\277\300\t\211\276\030F4?z\224\261\276\037\252\005=\300Z(\277\263\231\000\277y\306\207\277c\322e\276\346\276\237?\342\300\354?\262\244&?\235lS?\300\027\235>\353\\!@\345\315\r\300.\267\337?6r8\276Y|8?6K\335>\177\315\205?\360y\010\277\306\204\347\277\033\267\310\276>e\200\275\033\273\251?\237\205\363\276}\023N>\036|\271>\364\357\033\276\010\351\240?5\035\330?K\373\332?S1\027?\227\346\034\276\271\206\275\276\220P\367\276\223\313\210?\020\0205?/Hk\277\304r\003@\333\"Q>\245Lp?\360\026\335\276\335\234\025?LIl?\035\275U>\325\004\324?i\235\006\277#\336\033>\307\"\206\277\270|\212>\306\252|?\323a\221\277\300\324S\277\240\257\010@e\007\223\277q\362\241?`R \276_\321\215?\312\256\030>z\342\241\277\246\005!=\351%\242><\323\036?Rv\246\276\261tJ?Kz\223=\332\374\031?\272(\355=\365r\016\275\323\342\275\275\275\221\211>\361f\026?D#3\277=\221\265\277\315B/\300A\265\235\276D\201c?,\220\007\300w\244G?Q\366d>@\365\252>\324{\'\277\332\310\241\277\246\302\r\276X\371U>=\315\235?\2735\245\277V\371\000>\363\250\272\277\373B\261>\221\334t?\377+\235\277U\226\346\277\276\266\037?{\235\021@~\342\225\2779e\355\276F`\206?\313}\320>\354Y\320\275\200\3771\277r\264_\277!\t\026?\301\'T\276\375z\356>D\340\353>\262\244^\276\"N\027?3|\226\277g\365\"??\366\016?\333\206X\277{\024\\?h\253\016?\335:A?\331\306\244?\214*\007\277!]]\300\036\256^?%\357\350\275A\375k\277\214\232\030>.yb=\263h\271\276\214\030I\277\333\344\255\277\252\003\000?\001J\353?p0\r\300/\374F\277\217oH\276A\214\005?\201\370\n\277\353\251\206?\226\365\005\277B\356#>\347-n\276\307F\014@.\332\310\277\344\276.\276$\353\336\274\330d3?\350\354\216>!4s=\025\350\337\275\315]\222=\022D\257\276\023x\023\300\214\244\254><\205\301\276\362\220\000?h\264\007\277n\'\263\276d~\276?\014`\212\277\034g\307\276\037\017A\277W\033\027=\342P\341?\205y\013?`E\353\275\237\214\233\277\024\357\244\275\257\371\257\277\257_\274\276\333,\240?\374\022\030?\325\233\024\300G8\336\276H\227s\277\345\371\255\275\217\273\236\277\255zp\277\375\234\025?S\326\215?\014?V?\267\307\346?\256u\335\277\220\207\205\277\037\251\'\277\335\263J?i\373\361\277\014\203\020>\023G\320\276iL\276\277lX\265\277]{\212?\337f\257\277\205\200(\277\324\274\251>\357\014\364>\272\373D\277}\233\246>\344\270\343\2765\"\030?\363T\364?U\212\231\277\036\267\177?\344R\303\277\265\330~?-\3172>\213P\201\277\265\377\243>U6\254\275e\310\364>\314[\330\275T\325\375>\312\247\337\277\235\313\240\277\205!\272?\332]R?\254\250;\276\' \352>\347\355\265>C\352D\277\267\037\306?\3700\\?\261\204M\275y:O\277\016\222\327\277Z,}\277\276\306\024\277\025\257\272\276y\0246\277\366\366\013\300-\222\240?\323*&\276\347\010\305\277\307\036K>\314\377\232>\240\326u\277#E\377\277\313 \006\277[\337\351?-\030\036>\272\334\274?\376\267\236=\353\341\340?\301\014\007>\345\325\277\276\230\331\204\277CK\224>J\304\\\276\005\030+<\321c\022\277\242U6?\330\350^>[rG\277Oa\212\277\340^\200>\340Q\371>\315l\t\277{\207h\276\227w\023\276\313x*\277r\234\237?\255Q\204??\315\270\276\365f\334>\3320+?:|\336\277\310V\203\277i\013O\276\333\353\276\276\2146\007\277T\225u\276\3013\224?\355\365?\277\342mC\277\316\236\354?\361\232\r\300\266\033_\277\222%t>\237^\207\277\354\024K\277\376l\306\276\006C\254?\257\343\202>\224\t\'>\241@\223\277p+\305?\334\265\350?\000-\373\276* ,\276Z=T\2778\326\342?\227\226E\276 \260C\277\r\222\241\277\371\022C\300#\331\271>\2113\335\276d\326\203?\207\"\254?\222M\246?\020)\377\277\210\242\227?{*(@g\324\234\277\350\3441?\025\310\036=\205\277R?<L\202\277\340\376#?\007\360\024\300\237\016\242\276\023\361\026?\377\377\006?\276\307\271?\377\362\250\277\370\354`\277\325\303\226>GR\276\277%u\316>E\302/?a\300\333=6\235n\277~\204\251\276\363\204\271?\000\326\320>\242\263\330=\204\200\325?\361+\354\275\273\017$\277{#\245\277se\335>Pm\270\276\371\346T\277\227\321\327\275\023\252\367\276\\Y\301?E\342G>>=\304\277\023\373\227?\010{R\276\346\343\302>\345@y\277Sy\264\274\333\332\321\2768\200\374=\024\"\021>\006\235\021?\276d\320\277\227\361\203\277_\323K>\253%\215=S\274\272\276\242\355\022?\363\276\232\275Vq.\276\177\202\002@\327\3078\277c\t\262\277\357{=>\264\361\206?0b\023\276\2501W?\022\024\246?>%^\277\013\315\301>\315\237K>8\n\257\277\321\007H?\234\273?\277\027\313,?\221\301W\276\253\273\001?\227[\243\276\246q\"@\345\325\215?\313l;?\377\337 ?\202\243\376>@\325\201\277\245\362\311\276\360\372\364\277\265\267\022\277\207\032\265\276\3763\003\2774\315f>mF\241\276\373\227p>\251X\356\276\365\241N\277\300\367\236\277\307\356H\275\210`\355>\364\300\237\275\331\325k\277!w\333\277j~1\275\271q\267\276\206L\371>#~\317>\311\272\n\300:\244+\275\313\036\351;7\243\256>\357\254;>\277,\277\277z\214w\277\364\377\026\277\016\331\234\275\265\221\004?t\212\317>\021\224\263\276\322\332I\300\023\357\037\274\363\276\352>\235\274\315\276\204\014*\275U\266\244\276\301t\277?\211v\211\277\n\225\260\275\356J\305?\245\227N?I@\267\276\260\207q?7v\021\277:\177{>\225\220\030>\340\362\225>\345\002\275?t\331r\276j\004\250=L\373\234>\245\001\215?\265\334\263?\365\352@=\251{\006\300\313\2344=\033j\330\27650\220\277\024\201\371\277\336\375/?&\3024?9\250k\277q\306\016\277\2654\255>\325N\206\276\343\210\005?i.\304\277\027J\034\277u\377\027\276=\312\372\277\207\300\374\275\017\263\275\277\017\340\274\277\370x9\277e\003\306=\375\322q>\201\232K?T\375\325\276\300\206\246\275\207\027F\275gV\233\2754\202k?\304\002I\277\000`\270\275\243S\035\277\322q$\277\016tp>\300\230\034@\307+\235>bd\'\277\344\2722?h\035)\277\035\003<\300.7\372>\300D}?|\023\270?ml\236\277!\003\303?\372|\371?l\333\301>\212\274\361\277\342\261\363\275\223.\207>\265~\202?\241F\210\276\235\353\366\276\236\346E>\356R-?\336\241P?\367\033\360\276~\245\224?Dn\'\300\032\\\r?\033\254\252\276,\227r\275\365\262\'?s\020\333\277r;\273?~a\\\275\342\236\246=\355\023\214\2761P;?\233\321=?28\307\276\377\346\264\276\n3\226?\230\216\013\277?\017M\277\220\304\377=\026\376t>\245\324\361\276\r.c?Q}\037\277\275\232\332?9\014\202\276T4\202\277\342\216\305?_\323\004\300q\363b?\274\3141?k$??(.\223?\263\377\206\277\013J\222\277:\217\231>I<\275>Lt\257\277\347\243\245?\271\346\342=+h\230\277\264\376G\277\223\013\017\300\315\270\320?\262f\314>\316\022\210\277\262o\326\274\315\225\013?\2111\217?\020\357\335? \265L>p\265 @^\326\204>m\367>\275?\246\304\276\314\010\246\277\307\262\360\276\033\366z?Z\355\016\276:\315\331?\000\0148\277\r\330\021?\007\246\250?c\224N\300\371\307\274\275G\313\376\276\360\372\236?\206GG?\311\321\224?c>=\276\242\350\036?\252\010\210?\307H\206\277\226\254w?%\352\340>fL\242\276\337\351\222\276\336\340\201>\271P\n\277\325\234\232=\3228g>\033\037|?\335`\307\276\356\211\225=\0162\032@\217@s\277\227J\346?\025%\023@\313\333\260\276\367\310\323>?%^\277[Cq\277\243D\205?\266MG=,\336\213\276\330;9?\036\367\213?\345@c?\231\277`=;=\026?\3002\264\274\306\223\300\277L\310\357\274\323\251\267\277U\233:\277\347]\256?.\250;=\033\005\223?\272\022`>_\r\255?\253\033\212?yB\223\276\'\'\007\300O\360\224\276\321\356\345?\335\334a\277i\320|\276I\315\340\276\257Pv\277j?\002?^\000\364\277Q\366\244\277\274Uq\275a\235@?\220xR>\025/\206\277\211\256p\2779qm\277?)\320\275O\231J\276\354\337<?\210\232\230\276\200\215\301>\214D,?\020Jm\277u{\264\276\235F\201>\231\314l\277vT\377\276\360\207\323\277\027\265\212=\223\2122>l\002\000@\326\200y?\346\037\226>\355\337\023\276\266\323\300>tE\207\276\237\362\026>C\371?=\007q\312?h\377\265?zwP?pn\334\277\3268\214\277g\r\315>\032\3548\277\246\370v\277\341\253v\277\332\036\221\277\306\210-\276\213\261\271=B\364\033\277\220\217\244?\2734}?3\334\233>\266\323\273\275\2156\202>{\266\244\277\307\017\014@\220w\377>Q/\231\277\340 \372>\016\374:\277\030\326\222?\324=\320\277\244~9\277b<\021?r\373\031?k{\202\273 \001\217\277\200\344\364\276\345\235>\277\350\000\220\276\276=\304?\223\016o\276\256\341\244\277aL\323?\335\335\302?\'\321\310>[\\\213?;\220a>\215\023\204>5\342\250\277\025\376#\277\270\217\231?a3\265\277\005\201\034\300\270\033(9\017\336F\277*X[\277\247\364`\276\220+C>8\301\005\277~.<?<\241N?\222(\311=\350vS<\260\232\025?\303*\371\276\321\332\003\276\266\276\340\275\004\330\007\276\001\001\241?w\020\215\276\2011\310>\177;o\277N`\266\277\226\014\261?c\201m>v\337J?\035{\236?`\373\204?\325\250\024?I\375\010?\275\242\344\275\362\353\372>8\205\212\275`\206\246?\300\277\376\276\313\343X?\270H\305?d\t\321>e\371\262\276W\262~\275Qb\235\277\017\313\301\277\322W\370\277\207@\013@\215\270\361\276\313<\247\277=I\374\276\217\023\213>\330G\212?r\322\267?!\240_\276\234\3708\277\352\316\202\277\333\324\253\276\313vy>\233q\373\276\207\240\323?\227\005\201\277\22625?yg~?\005\372\255\276$^M\300p-\235\276\342^\236\276$\363\275?\307\306p?\337\270\366\276\305\035s\277\330\323\301?\350YZ\277x\013\206?\226\261H>R\257$?/[\234?5\371,\277&a\365>\362\017h?*\017\023?\347\367@\275X\212\232?\302ck??M\026?\232\261\243>\260\337\245?\206x?>\364i\016\300NH\301\276\224^<@4\")\276\345\317\220\276\005\232o>\023@\343\277\014r\227\277\272\3661\277i\247\000@m\243\303\275?\367\304\276\322\373]\276M\201\177\277\257C\256?\tm0@\000\223\243>\037\2515=\3511^\276\240\\\275\276\2273\215?\035\026~\277\332o\313=\224l\221\277\342S\324=\223\033*>-\247\344>\352\362\277=\263\"\004\2773\027\370?\342\335\034>f\006\361\276\354\231Y\277gf0?u\274~?\252\ts\277\202\233}\277\177{\241\277\252\377*?\345\250\245?\310\360^?\321\251`\276\340\213 \277\365\200V\274\010\265\335\276n6X\275\353~\314>,\257\373\277d\271\002@\030\265\232?(\\x\277k\014\213\276\275 \030?M\036X\277y\350r?!zJ\277\177m\204?\262s\304\277\301U\266\276IT\\?\'\313\000\277\356a\027@\262\207V\277\326!\260\277w3~?\024q\201\277\357y\265>\025\252\371\276\222\364\236\276\"\207x\277\371\341p\277\333\000\232?\332\331\\\276\005\265\014?\207\030\026?\014/$>:.\206\277TWw?\261\352\\?\031\233\311> \242\020\277\243v\261\277\371T\n\276\276\001\324\276n\203\215\277\202\264U\277\232\250\'?M\350.\277m\331\206\276\332\351p\277\247\225\n\277\"*\203?\"\231.=^\260\334\276\037\367\330\276\376\t\370\276U\3345\277\007\362-\277\323\273\204?\026S^\300\337\227\364>\372\212r?\333kR>\261j\341\2776P\264\276\024x\355\274\335\310\250\275\342\367j\277!\351\236>)\310\035@\251\375\334\277\376\242\310?\341x$>\275+\250\276\366 \206?-\273Z\276\257\351)\277N[\320\276\2378\t\300H\332\010?\327:\236?\274D\025@\237\307\236?\204\266\326\276\272\201\227\277\241\256\305\276\352u\030\277cv\367\276\303\342\306\276\274\361\265>\001)^?\224\204\270\277\\\371\036?\200I\005\277\353[Y@3\211G?\n\002.\277\304\212\215\277\352\221\\>\227\336\346=M\226\234\277D<}?\210\341N\276\217\036\226\277F@;\277xD\226\277T[\032=\300\322\346\277\361\245\033?>\342\322\275#\357\226?\322\337\273?\277,N>w\221\203>D\206\207?@^;?\025L\302\276\365f\352\274W\351\277>\273\217\237\277@\273\344\274\2573\360<\270R6?\371\006\331\277\203\013\034\300\037\340v<}\320\202\277\312Y3?\317\305<?\023Q\216?P\010\247\277\006b]\277F\034\216\276|\351C\277y\250C\277|\224\347>\240}$?\212\3251?\325Y\340\275\274o\223?\374\222\263>\263\222\275>\257:\215\277T\306\321>\036\360\245\277\003\314\010>\354\225\225\276Al\302?\316\322a?\342u\\?L\240\002@\n$\311?\305\007\242?|\276\306>\327g\353>>0\230?8\345_\277]!\263?\235I3>{W[?\337\250T\277\0028\026\276`N[?O\375\r?\337\204\037\277\251&\265?iBD\276Mzf\277k\033\022?f\037.\277\267\227\t?\214\361^?\202\336t\277\376\207\203?\001&\347\277\274\243M\277^\245\200?\243V~\277@\255\006?W\340\324?1]\004\277_\033t\2764`\235?na\371\277\374\244/?q0\240\276\207hW\276\036\031~?8\006\233\277\026\370~\277\360\251\272>\311\275??\257\207i\275|d\225>wyR?\033\323\037?[\010$\277=\254\253\277\221\341a?\025\343\t?\357\363@\277}\301\250>xv+\2772c\325>e\246\254\276\231Y\320\277\345\334*?W\337\005>\013\212\204\276\022/\251>\007\235\210>~\260\273?\215\2150?<1\004\277g\320\"\277\304Jb\277\007\233\277>\036H\020\276\331\260\252>\276\233\335>\360\360\224?\255\2328\277\315\236b\276-\270l\277\366\356\007\275\3045\364=\014?\307\277s\220\027@:\225\376;\262\243J\277\026\354\001?Zc\251>\250\272\277=Gb\317\274\030J-\2760\'\'\275rJL\275\252\366\350\275\006k\353>\363\211\305\276\346\300\247\277\371\204\301?v+\210?Rh\357>M\226D\277\r\264b?\201\022\340\277\215\350\321=\007+\340\277e\262[?\317\341e\275\233\271\350\275S\010\006\277\324\025)?\335\021\274\275{\240\032?\277+\310\276\021-\207?\3435\020?\313\314\206?~\241\010?\215\261\252>\312(\033\277\343 \375\275\2009\377\277Y\255\364\277j\326M?\331-\003\275\233\377\217?\267e\244\276\373\365r>zo\013\277d\337B?\373\301\232\276\216o\375>6\301\214\277\023\305\353?\000\344\232=\256\362\200?\034\240\242\277k\227)?E%\302\277\366\2032\277B\341\360>\001F\337\276g\351\316\276\356\302\210\277\307\376\213\276\3116\263\277\032\"&\300\252\0013?m]4\277\260\232\233\276\346.\202?\367\007\205>\240\020\344\276Z\233\336\276A\230\303\276\307\367\256\276\237\000n\277>\361)\277fN\217\275\006|\014\274\217I\253?\264\372\315\277\354;\341\276V\262\213?\214\033\033?RQz\277~\361v>^]\n\277=J\200\2735\361\262>\301\026\217\277p\202@?\254\231\010\277\014\347\257>\305\362<\277\364}r\276\324\2075>S\263#?\301K\235>D\"\026@j\0077?&\355\214?\370\375G?M\2011\276Y\301\'\277\322!(?.w\317>I\202]?\321C\035>s\037\221>\366Em?x\2000@T\343\032@t|\273\277\227\226\307\274\027U\264>\217\027\201>m\270\256>Q\266\026\300\275w\231=\331\002\227\274\027\342\376\276\010\017\266?\036\255k>RD\036\277\274\240\220?\'\243\001?J\"\232?\273\007\375?\275\234\221\276\003\324(\277\351\254\221?Jp\034\277C\270\261\276-\014\360>\364\220\236\273\372W\021?\200\204\270?\345\362\231?)\304\333>\357R\026>*@\227?\330Y\004?\024\346\030\300*\326\334\277\275E\020?\t\241x?h\246\256=\207\177O?\215q\355\276\253?\213\277W\017\214\277*\002\210?[\207m\277\264 ]\276\0048l\275~\256\331\277\255\241\001\300\027y/\275\002\200a=@O\213>\370\311\254?\252\254\024\277\"R\301>\376\234\206\277\347X\205?\312\331\"\277\022H^\276\236{\272\277\202\234\r@\201\342w\277\345(\037?a\320\026>\036\316\236?\341CV?`sK\277\225j\r\277\25491\277\006B\346\276\303\256\177?DQ\262\277\200\023\227>\253n\004?6J<?T4\025>pe\245?\236\346\307\277\033\236w?\321I)?\025\324\001?B\024\232\277-E\260?\tf\031?#\324 \276\271W\034\277\305\037\r?\216\242\237?\343\263\203\276\023\273\230?h\2546\277`\255\202\277\031\342\234\276&\010\213<\367D\327\277\320t\002?\310\222\177?\233\350\247>\307iY?\030i\211\277)\202\371>\372T\257?\374\262\004@\372\022\323\276\030\356L?\370\316\312\277\022\256\331>\004\017r\276\346\205\014\277\016\372\257\276\272\353\243\276\232\357\227?\204\336o?\216\362\004\300\215\262\301?\021n=?\354|\307\276\341s\334>z\3552\277\315\235\217\277[\014\323\277\237\345\021@\245\205\250?\234\0167>=\002\361?\007\3132>\315\025\311\277\177\341Z?K\032!\300\361\304\210\276\215F\241?5`\253\277\200\250\216?\3256(\300\341\016\276\277\334\030\301>\034\330r\277X^\025\277\333\275\342?\350;\232?\030\307\216>\027\317\205\275F\250P\276\265\317\362?\332I\027\277\305$8?g`\245?8\364\235\277\204\356\205\276l\317+\277\360\345\017\277\021\037\316\276\236\2350>(`/\277\345\321\242<f\257\274\277An\272\275ws\025\300\234P\030?\333\277\205\272\346\212N\276\3010\256?\227\264\365=\023h\215\277\255\271|=\234\007)\2771\325`\277%S\255\277\246Y4?\253+\270?\233\320\037\277\260\241)?u\001\265\277\r\\K\277a\017\017\300\353\353\375\276\016H{\275\232\347\214\277\365U?\275P\226*\276\213T\212\277\240\310\034?\203\371\276\276\026M\274>\276\330\270>|\255A@\314\301\245>\305_y?\360\222\255?\240qP\277!m\020\276\316\'\351>\177-/?$\327\316\277\376\031\242\277\251\214\230?y_\366\276/\242\264?\207\371\357\277\335\017E\2774\262P\277\037\253\224>#\t\202\275\353\333\340>\210\244\220\276\231\350\026\277\306i\244\274\236\302R>\316\230\242\273z\334\306\276\0163[?\021a\000\277\006\210\240\276\306j\210?\256\265c?\022uP\277\374\n<? \233o\276\307g\213\277E\025k?\251f\212?\230W\220?\375T\214\277\254\325\001?\320s\024\276\3716#\276\203\203\373?<\035\r\2770\252\202\276\017\302\236=\257\030\331\277,\372\307\277\320\304\331\276\357\003\241?-\205\212?\331\204w\275<\305\245\277\342\217\324;\323\006Y?@\214\237\276*\014\274\276\0213$?\244\200w?K\346$\277C\211!\2770\303\310>\276V\312\275C/\370\277P\004\005\300)E\324>\370\303I?sk.\277\023{n=LB$?=\276\007\300\241G\257\277< \320\277w\234\233>dEw\276\304D:?\315q\236\276\265\031\266>Q9\366\275\326\257\'\2777z\222?\022\255\251\275\257\000\234?|\331\256\276\243<\206\277J\2145\277\310~\301\277\240pQ\300+){>\030\306\254=7-\351?\213\364\356\276\362\304\335\276\2409<;J\177w\277\367\275p\277&\322\344>h\337\373?`f\232\277\020]\024\277\246\270$=6\202I?Z\242\234?\251n\234\275D\033\372\276\226\237\013=P\317+?*\305\244\276\202l\364>\254yx?\354\333)?p\232\024@4\216\262\277\266\230N\277x\235w<\300.\232\277\001e5?\007\235\275=\003\345\n\271E\207c?C\271\307>\030\303\215\277!1\340>\253\200\224\277\263\024\321>\356x\340?\345\244\362>8F\t>LL\366\276\255\314\365\275p\376>\277\027\320\\\277\366\236\250>\367\241\234\2772U\210\277.\211\304\276\033u8\277M\244#\276\322[\330>\262\312\001@\373\032L?\212\204\344\275\021\272*=h\355\214\277\250\276\262\277\330\006B>:\207\331\276\203N\243\277\336\366\232\277\n\275\237\276\201\000Z?\026~\337>\226\260\300>\345\323@\277\312\240t?\304&\354=/\205T\277_\237\273\277\014u\010?\305e\255=\361\352\t\277\r\247\201?\306\022\010\275\251\265\031\277\313\221\341?\300\343\364\277\016\304#>He\212?*\t\032>W6h\277\222B/\277\014\241\275\275\252\2300>\031G\242\277\363\214\373\276\3025\361=\306\2027\276\024J\232>A\204\252\276\017\203\307\276\376\277J\277\203W\242\276\3356\277\276\272\025\016?\374A\235>4|\201?\274\277\210?\336\\\343\2762tl\277X\210\220\277\r\343j\277B\"\013\2774>O\277\361\261\322\277\251\177\211\277\006q\000@zS\240?\010\'E\277\301\217\355\276\277]\347\277\321\307\177?\365\327A\2776\361\367=l9\323?W)\364\2767j{>\305\037\212>\237\3512?\267L\002\277\233_\250\277\326\010J?\022\037U?\013\351\213>.B@\276k-\363?!7 >\3165\325\276\206\211\242\276\261\335\233\277[\031\212\277\031\376\354\277C\246\321?\377-\032\277[7\347\276\350\0024@\"\254B\277\223\342}>E\373`\277\205\276?\277\006\242\253\275\216@\370?R\215\353>\217\341\246\277\315\022U\277\036gm?!\262\356\277\354u\245\277\356#\037\277\026\203n>\214N\273?a\237\004=I2\324\275yB\032>\014\003\000?\033\320\372\2751>\305?A\305\005?|]\214?\005Y\251?\242\266\264\277\367\227\266?\321H\177\276\215f4\277\241m\266?Xg\001?\373\256\345\276\360e\243?\202@\001@\205b%?\355\312\236\274\336\036\004\275b\321\027\277M%\261\276\2427y>\016\321\266?\353/B\275\267\\\362\276T\341B\277\235\335,\277|\315\"?8\202\202>\246\004;\277k5\332\277\272c\254?\201\034\255?\005\256\246\275\347\352\353>\347`\342>@XL=[\001\273\277\232\232\340?n/_\277\263\235c\276 I\370\276\"\334\233\276\314\261y\277\021\034}?\347\001\372>\242Y\261>\366\255(?\037\226\235\277F\247\222\275\241\370\225\276\316\'(?\356\326\276?&a\242?\354\312y?\344\333\303?5:(?+-\352\277\017\222\265\275KW\230?\026%(\276h\326\213\277a\310\014?\322{j?\327\225d>\201&\250\277,\216\300\277\315\310\032\277\035\222\254\276r/\007?p\r\004?p\224O?\033GI>\370\356\324>\036/\377>m\241w\276\274\n\021@e-\t\277n\343c>\312\231\273?\272^9?\223\3131?)R$?l\021\370\274\365y;\276]s\007\276\340\321\237?=p\356\277c\342#<&\\\353;\223\006\305\276\302\367\342>\315\354\367>D\345\254\277\262//?b\014\272\276@\366\212\277\005c\024\277\356\017\003?8T\002\277C\272\317\277R\323\306?u\250P\277\260\363\232>\330\250\216\276\017x;\2777\205\t\277v>Z\277r\017\312\277\310^\334\277e\366\r>u\311\010@\374\004\256\277*\231t>\352\214\217?\024\'L>\222\005L?\202L\251\277\305\255\307?\2052\242\276\020+X\277+\252^?\262\007^=:\315\262>M\243\325\277\272\343\315>A\270P\277^\023\372\276\334\271\270>\216\275\264\277`\357@\275\t\260\002@OY\223\276{h\226?\344r\372\275\341\021\242>\253\216\244?\207\271\302\277\003\321\223?\242\330\255\277\324(\222?\253\305+?\233\367\023>:@c?\357\350p>\020\325_\277\230\000+\274<\230B?\016<\357=;\203K\277o\036\212\276\245H+\300|Z\207?\327A\265>c\375\204?+\307.?3&\036>\215k\255\276r\321\250>\213\255]\277\034\340\377?\201\033\264>\275\206\350>\225\231!\277\317\252\261>\202{\277\277A\337\225\2776\260\355\276u)\345>Z\031\261?g \035\300M\276\262\277\021\324]\2777\017Q>\020\363,?\'\273\305\276\215.x\277(\206\031\277(\\\017\277\306\005t\277\t\256\201?\030W\n>\363\250\311=\215\266\214?\264\320\340=\277@0\277\311f\221\276f\314m\2768\035y\2777!\215\277\210\230\247?\264\201#?\256\374\316\277\326\312\331\277\362^\360=\260\271\247>\2512\010\277\220\255x>.2$?!K\316=\1777\006\277\013(\232?*\004\346?\005!\206\276\371\323V?\363aZ?[\356\032>\350ah\277\351\306\177=7m?\277\033\351+\277\301\377\200>\317\2622>\322\356\225\277\002\nx?\205\243\016\276\270\177\200>\317\226}\277\252\303|\277\325\347\247?\2044\341\276\037\305\003\300\357\305\245\276p\275\246?\376(\010\277\032T\314>yT\363\276W\323_\277\307\314\255?3\303\245\276\027?\357\277\270\2567\274\235\023\363<\243\244\234\277\033z\377\276(A]?\332*T\276\007\314\031\300h-G?0\216 ?\355\307\236>\231\256\324;\262\365\237\277\332\354\247\277\345\365\203\276cvO\277K\320\257=\2232\356=i\347\022?s\226o?\304\340\317\276U\275\261\277\270\025\227=\014\022\277\277\214\355\327>\346R\250?#\247\211?\254\330\241=\216\331\274\277\243\365\300<,Kq>\214\336X\2752\242#\300s!4?O\211\264\277\010i\306>\216\231+@\307\271\256?\240\020\332\2763\347\263?\360\232_\276\020\371\001\300\005\310p\276\035\273\023\277o\002\336\277\216\034\326\277\000K\301\277c\367\226>\017\016\030\277n\336\320\275\216\236\371\277\354\307\021?\353\352\010>\235\273\236\276\232\235\211?\251l\266>V<\002?\326\340\027>\216\017\n<\333`\215\276\335\242\217\277G\202\255?s\376\212>\363\3525>\310w\207\277\027<\t?8|\245\275}\224t\276\tA\336\276%\366\221\277\000\226\233>\345\004\307\277\r\371\364>\267\327\246\277\315\235\325\277\337\3648\276\344\377\275?\275;\201?R\354\325\276\035-\224\277n\203\322>\t\221^?.:5?M\216\300\277!\320\200>\234F\025\276\322\222\001=B\361\r?\216\2647?c\343B\276t\207\243>\320\2172\276\341s\350>\214z\014?\271\273\366\275\313?1?~\371\303\2776\367Y\276\231\262\026?\332F\\\277+\3231?M\330\341\2748\025b?|y\321\276\350\372\305?\276l\270?u)\263?~\367\010?V\n\227\276\307\033\016\276\350\314\377>]\246\264?\3550z=)\006%\276\233}\311>\352]\350\276-tj?R\313\305=fq\244\277\345\202(=\347\214\024\277Q\317&?\371\023\026?\344t\204\277\353M\216\276\241\210\226=n\"\256\276,\246\242\277e\350\215\277\231\250N\277\223e\356>\304\276-\277\241A\301\275Et\035>\376\215,\277%j\216\277Z\037\340\277\212\337\324\277\031\210\204\277\372\370\014>\262?\261\275\"\371W=\2079\r?PeC\276\232\032\246?\376:\235?\204N\221\277\201\271\272\277\365\245W\277\211\314l\273gH\223>^\321r\277\257\203\233\277i3\002\277\006\262\224\277\320\004\276?x{\264?\026\r\022\277{\347*?\263.\'?7m\205\275k\001\377=u\233a?\3068#\2773\361\226>\331,\235\274\320\024N\277\214_%\275\336\370&??\321g\276\262e\232\276PH\232\277\374\026\203\276\305\313\001\277\340\245U>1\375\342\275\304\362\246\277+\302\236\277\230\332_>\223]\315>\"R*=\2475\203\277)`/\276\tE\374>\275\371\246>[D,>\220\017%\277+\366%\277\360\2146\275\212y\250\276\227-$?\035\013\241?\016\201&?6\225\243=l\250\257=\333\212\n\277\324\214\347\274\"{\207=\260\204^\276\237\035\272\276x\203\270\275LP\323>\334O/>`\002\222>\231+\246\277\254\316\237?\370\377<\277\234~\377>l~*\276\230\326\001\300AN\305?\317\020O\277\377\342_?\036X\265>8<R?K;+\2765z\240\277\252]t?9\236\234\277\217\026\035\277lA\001?\\\267\266?\373\021\000\300\312\266C=\2338\201>\031%\241\276\357\314Q?\274\265\341>\256\357\222?U;f?\311\212\277?\320\023\335>\354Mr>\024\266\272>\267\277\271>N \013\2777\270O\276\003\223u\277I\353\200?7n}>j\317\210>\000\007\211?N\247\374>kL\217\276(X\024>x\307\203\277\324\277\343?\373Bj>\372\245\n\277#\300F\276\256\267\246\277%\274*?\264r0?K\300\217\277\357\2573?\2205,?s\252\005?\376$\024\277\362>9?J\376y\276\350\2535?\357\273>\276P\377\034\277\246\305\336\2777z\004\277\200\267\014\300\365\365\261>\'xG\277\017\205\233\276z\215\254\276\024|\243\277F\005\352\274r2\t@\017\\:?0\331\n\277\203\225C?\376\007\246>\326\266\240?!\355\016\277z\"\331>RA/?\353\'\256?h\225\205\276\016g\267\276\020/i?\350$\360\277t\243H\275zH$\277\260\372\202?l\253\207?\226\262\327\277\306\262J>\221\366\316?Ge0\276%\343\217\276r\351\210?g#6> \314\340\276\313\305\017?\016KY\277\340\010w\275\274\304\034?\205p\320>\265\312\017@1\244,\276zf\220?\214\301\240\277\220]\034>b\\\272>.\264\244? \344\031>#5\321>\222#N?\240\276\004@*D\232>k\355\274\276l#\347\275C\342\300?G^\233\277\222\317\350>\231&q\276g\336\261\276\356\024\031\277\244\377\000@E\246\340?\177\271P?O)\250\276\304\333A?\357\264\202?\236\007\262?\032\305\312\276Dk\223\276\366j\232\277\030\337\362>\350\326\333\277\023\226\027\277NQ\271>zEV?h\344\331\276\372D)\276^\251-\276\202\230!?\003\'\224=\377-w>(\376\350\275\365\330\336?\235\365\330?wg\261?\353\230G>\3558d?\324\201\213\277\305\366\r\277\311\326\265\277V8\016@\357^\210?\334a\316>\370V\330\276R\005\374\276\024Q)\300\"\022\250>\216\274m?\303\2444\277\337\026\375\276q\302S\277\235]@\277\234\217\212?\267C\225\275i\034\330>\375\323P\277;|\232\277\343\204C\276\230\2226?!_g?3\325\247>No\201\277\202\325,\277\346L\313\2773yo?\333B\255?|\203F?(\t\204\277(uV>Z0\006\275\214\r\210\276}M\230\277\253\360s\276>\202\202?\3513=>\267\001\325>%\366\317\275r\310\360>\'\265\262\275P\271\376?\303\025\222>\262\241\225\275\333\376\370>of\250?(\210L?\313Y`?rJ\006?zL\274\277\325\310\245?\370h\216\276\036\365+\277d\256\215\276\201\014\223\277|\245\314<\374\334\"\277\002\322\236?\263\264\373>\221\234Y\277\253\037e?\264\327+\276\303%\252=\030\367\350\277s\312\310?\253\325\177?iJ\231?\355c\311\277\035\241j\276\226\335i\276w\365K?^\024\240?N3\270\274m\342`\277\375\364\001\300\301\033\002@\314\3019?6\303\005\277\023\305]>g\341\240\276I\251&?\351D\207\277\302\217\266=h\242\302\277\'\354\263;\274i\017?B\277\213>j\317\266>V\312\217\276\374\253M\277\201$\213?\356\017\234>\007\221\326\275\222\333\t\277\252\231\013\277S9j?L\231\353\275\255:\252\276\2628\375\277\244\323\214\277\013Z!@\340q \277\0207D\277r\353\030\276\267>o>u\302\370\274\023\336=@*\020U?\030l\244?\005\340\273>\016\'\245\277\273\327\261>:\352\251\275\022R\\?3\207C\276HT\315=(\325\n\277\323\027\346\277\225@\250>{\212\301\275\343\3339?Z\021\025?\313^r\277\305\010#?\334\t\002\276X#\304\277Z5\004\300\327\004l\276M\271\232\277\273\217r\276\217B(\276\3112\343\276\2226\314>\342F\311\277\310?\244?\352\3520?\364\225\210\277}\244R\277\336\356\363>yZ!\277U\021\325\275\270\353\362>*\033\\>\344\364\211?\224\273x\277\ng\260\277\233\361W>\243\3274\277\313\317\214?\260\357\340?\375$\274?\312\0130\277\025\374=>\215(\215\277\r\245\006\276c\270X?\363\366P@.h\227=!0\000\277\200Q/\277J\250\247?\337P\313=\333\006\253?\224\302\t?a\037n\277\233\364\214\277\3539\254\277\355@\315>@\003\324>\342\035,?\231\216\227\277\3357_\276\372\350\327\276\332\3145\276\362+\332>9\r\206\277(\t\350?\273[\021=/<r\275\265\200\000\300|\207\325\277\027L\372>\027\235\353?]#\333?rQ\334\277\312H/>#\351h?m\356\021\277}\240\006?\317\013\027>\035\321\037\277OB=\277\225\020\003\276\265VS\277T#A>\303Q\025@\374\331i\30038*\275\344r\372\276\353L\320\275V?\007\277%e\357?\010\251w??\365\216\276Y8\331?\003\332\210\277\003E\253?\270\362\030?8\341\204?\355\274h?(\010\216?\243.\347>I\255\274\276U\364\214?\306G\021?\261_\030\277\322\3068\277\365\032;\277=\376B\276\026\247/@?\220\021?W\323n\277e\336\221?*\022\371\2756+F\276\263(W\277\324\310I?\362\226\311\2772.\320\276*\025\002@\034H\254?\223\275+\276V\204\327?2\270\377?\234y\241\276\017<\322?\206M\202>+\2173?\r\221\270>7\222\316?\313\300j\277\210\365\374>\261j\340?{f\334\277\332\007\003?\242X\360?~\241&\277\243>\233\275W\035\257?\2217\226?:\177\006>y\252\017>]\346\007\300\'\215\010>\360A\222\277\212{\021\277\002c\246\277\300\264\364>@\004)\277\202\033\351>\307\2512\277\033\3325?\237d\244\277\242\365\260\2764\277\203?\356PS\277\207\257\021>\321\010\221\276j\377\372>\031\"\207\277I\262\352>~g\236\277V\'5\277Z\240B\300\255\236d\277\315;C>\343\214=\277\034\200\257?\240e\271>\365\233\277?\357\017m\277\362\312,;}\366v\277\'Q\351=\322\377u?\365\037\251\277\\B\254?W\221\004@H3\205>\352\335\223\277l\2721\276\374\253\220\276v?4\276\320\356G??\032C?\366\243\247\277\023LZ\276,\334\013@\254N\016?\3265\006>S\322o?\255[\203\277\272u\024@\216\223\227?\343\004\003\276\023P\313\275\226\372\300\2765@\263\2764\311[>0%q?\271\010s\277\331\272n\277&\257\016?\251\324J\276\243\217\311>\032\361\232=D\213F?P\315\242\277\201+\227?\354\340\230\276\346P\264\276\331\242\027@Uma\277\021\341\202?\206o\253\276\224\241\202\277\202\217\002?\264\303\310?O\341\323\276\241m?<\23784?\271\211\372\274\312PB\276t\211\213>\331+\253?\376\217\325\277\361>\022\276\325\343\024?)[\311\276\300}\262=\200\177z?\332-(?\224&\320\276\357\376.\276\206[3\277k\330\312?\243\336\351>\200\210w?\212\377\201\277\345T\376=\217\206\t?\2349\005\277h\266\232\276\342\251\"?[\2505>\265\'Q?H\310\353>\252u\232?\033x\336\277\301\017\254\275O\256(\277\243\212\035=\004`\234>\010_4@\311A\017?\335\377H@\337\230t\277%Y\231>E\350\325>U!q\276L\246\177\277\310\016w\276\245\277*\277\340?^\277\252\210\030\277~\305\324\277\277=\006?\030Or\2772\021\266?\326\342\305\276LF\223?\235\205~\276+\342\240>\323[&\275\205z!?!W\022?\340\256y\277&\326\365?\375\355\'\277\032 \300>\355\271\004\277G\r\251?J\243_\2779\2519\276e\312\211?\266\316\341?M\t\221<\007V\342>\235a\360=\234BH?\016v\211?#W,\277\305\327\264>\035Bf\277\242\270\210?+\310\304\277\374\314H?U\214\323>\322h\226\277\'\317\367?\265\336&>\377\334\247>\355bZ?}\256\246\277(\376$?L\272=\275#d\033?e\201\327?wj\316=@R\234? \3050?\224\025\367=\263\2311?I\317\254?\304\2463\277\306\303\244\275\031l\307?fm\200?\265:\010@\352\367\004?4\321\250\277F\014\001@.t2?\n\262\243\276\3351k?\303x\337?I\220\216>\260\347\351>\334\036l\277\350\257h\300\033@\221\277\3414\014?{B!\277\024\345+\277\360u\317=\313\346\300>\014)H\277\322E\371>H\260\250?\"\017\246?\353)1?D\2241\277\306\305D\300\370K\310?\247\226F\277\034\231\210>\006\233@\277\000\307E>\257A\366\277#?T\277g],>\275\210\270?\204\365\004>\330\236\235?B\000\357>\213\315E\2766g\022=\251\366N>m\303\346>\325\002\017?(\333\241\277\205\036\221?jR\036?ygV\276<jv\277q\362\031?\360M\300\276\224u[?\024\321\027@l\333{\276A\317T\276\357\356\t\276\353\301p\277}.Y\277\010\217\224?b\216\262?\356\3421\277H\337\212?\320\\ ?C\276-\277\345\210\254\277t\245\361\276\n%\000\277\222\200\000?\312|8@\251 \037\277}\252\010\277.-\262?\023\257\241\277H\371\375=\371V\305\277\272/\236\277\032\035\223?\026\300\340\277.BW\277\374~\300\275\273\246\014\277Q\210\251\277\360\001\n\277\034!\025?\266\017\300?\010\323\n>s\230\331\277\231\225\277>8\037\266\276\273\246\266\275mY\236>O\2029\277\376#\271\276mr\031\276\3367\325?\r\006l?\271\321+\275\2773\365\275\227C\360>\212\003\311\277OO\241?\351rh?\261\307\272?\033\210\251>5\347#\2779Y\256?\251\217>?\234z$\277E%\221?\252\235C?\342aS?\227\332\202>\361\376\226\276m(C\274\370-\303?M\013%\2771\324\321?\310\374E\2778\247\000>\373Lv\277#3\010>\323N\361>\250f\337\276\272-\366\276\300e@\2770\363\361>\024\376%\277\343E\023\300\222\332\355>ejv?IVd?\201\223\256?\247h\202?\331\300\310\277\334\"x=5f\253<\023\237\234\277P\225\266<F\271\335>Q2\252\277\264?\211\276\357\224m?&\373d?\307\376\210=\251\003\207\276kl\203?\177\336\323\277q\315\034?)\364*?\215\376\360?\236\370\350?b}\247=W3\311>\013\300\003\277\332|\316\277\004+\266\277\233\233\373\277I\352\360?\362\3471\277\\;Q\275/\340l\277D{h<\312t\350\277\035\204f?(P\256>\'3\300=\334\0261\276^I\344?\326\325\316>\251j\350\277\226\313\030@\201\375c?\367M}?\377\0067?\242\023[?\\B\200?\030{\370>-\343Z\277\265\016\226=+)\227\277N\343\242?\232P\270\276\022\271{=\351s\224\277\357F\002\276\335\2567>\306\222\203?\265\231\342\277\333\034\226=\005\226\223?\000\007*\300\260nD\277\326Y\346\276\223\016\020\300\240HG>\212{\217\276sc%?]\321N?\204VJ?%\'\177\276\311J\274>\301\027h=\352}\321\277\026\200\215?\027@\220\276\311w\036\2765y\n\275\234\230\254\277\334H\227\275\010q\231\276\257\000\346>\t\377\202\276JL\237\273)\264\210\277\026\2652\276\202\362\330\277\340\370\227>\r\254>>\250\343\351?N\301\346>;M\255?_{\333?\271\326\235?jr\206\276\330\374\266?p\037\216?\223\236\245?\334\016\010\276f\246\n\300\225\314\344>\037\345\002@h\202\350\275\227\256\266\275\017)9\277\030\353\275>\310qG\276\233\321g\277\336\331\312\276\'\222m\277\331R\224\276nf\376\277\000\341\376>\356\016\214\277Te\226?\3241\261\277:\256V\277\n\211\023?\346C\002?$\030\307>\345\230\270>i\341\001\300\302\372\305\277)+\253\277\245y\367>\274\"\034@\305\356@=\342\304j\277\237\t\013?4\036\023\2777k\201>\0147\206\275\3306\314\276\254\305\025\277[H\005=h-*\277\021\020\226>\204\203\363<z\004\354\276\363fT\277\347\317o?\036{\021\277\3470K\276R\325@\277\377\010\203\277\320\205<\277u\004\006\275:E\325\277Wz\324\277\203\325a\276*\335\214>f5\372\276\245\014&\277\232\274;\277\215\317G\277\310.\255\277\365\177g?CN\353?^\204S\277\013\001\035\277\375\236\225?\351\214C\277\260\261\003?\373\250\203?\330\001]\276\304\r\213\277\024\372E=m\007\302\2772\025\245?\230>\337>\364^e\276#>\213>Tl\233\275\316$J?>\016=@\374\"\245>j\000=?\351=\202?\222\033.?J\243\360\274\354\247y?\264@V=\257!\227>\356\\ >/\201\210?\352\364Y?@\204p\277\200\276\255\277\321I\214\276\353\270m?\265\361\251\277\201y\024\300\026x]=\201\0240\300/\373\225\277\n\300\271\277\352\337\005\300\014;\350\277\\\024\274>\260\262v?#b\251\275\327P\003\276\270\367\224\276\274\256\206\276\362n\253\276;P\026>X\013x\275\243\260:\277\372\030\235?\370%\216>\332\217\246\274\253D\201\276>\010\311\276\303\265\312\276\\y\364\276\237\256\214?\214\324\222\277\3467\247\277\204\240s\276\351\354^?d\\\t?6\017r>A:\020@\246\234q?\374\005\374\276\321N\260>\265,\237\277`\001\001\277\025\355\230?\273\221\374?&\337\\\273\317n\221\275e\236\010?!\332\023=\227\233\255=\361\225\222\277\376e*\300\000\277\001\300\253\361\205=\317\216P\277\274\234\304\277\364\352\354>j\342,?\000V\333?\025\364\371?\016z$?\270+u\277\314\204\202?Bw\016\276\346x\304?\251\266\022\277#\227\222\276\365\360\234=\t\227J\276Ad\244\277\200\2470\276F\367c>\234\367\277?\'\325\005\277\271\265C>\026\254P?\240\253!\277wN\005\277\3040\216\277\363\242\023\300h\342\226>J\377\310?\255\035&?\245\317Z\277a\320\036\277\370\025\360?\003\321\355\276F\252\333\276U\261\227?\351\311\021?\005\340\212?\035\274\026?;\354S?f\333E@>\002\333\276\340y\221?n\344L?,\013\345;\006\340\312\277\002\354S?y\r\315\275\007L\311>U1\302=\021\301\223\276\346\314s@\336\332\220?\357\210\023>\'H0?\223\236o?m\335\005?\260l\225>\017\221\341?\366\200\320=\323k\014>C\242\257\277\"\232\214\276\236.\226?\317\221\230>\031\362w?4Z\337?\355by?\206\3071?\027\350\000?n\236\227>j\263\220\277b`\001\277NvF>\352B\000?\035H\302?\226\270\252>ZV\207=K\301\237?$E\006?\355o\014\276*c\210=.=\021\3003!\274\2752\nL\277`\030\261\277\213l\271\276\310\230\263>s<\225\277\031v\001\277\037\026s\276\376sg\276\343\223\236>\233\225\272\276\343\005;?\242\340\267\277I/\245?77;?\266\333\333\276\"\206\037\277X\365\277?\357\264i\277\237\201\207?\223E\352\2758\317\356?\255Z\203\277\370\216u\277\307\267\272\277\342\232\026>t\240x>\272\212\200\277\177\367\335>\242L@\277@\035/?z\323\304>s\312\337>\031Y:?*\333\002\277\304\253\355\277\255l\241\277\305\375\357\277\006\026\225\277\246\336\357\277\302L\340?\337\217\371=\020\267W?s\342\307>M8\004@\233Y\223\277\277a\177?A\337\351\277\376\365\017\277Zd\203?\302\3466\277\327\226\355>\000\315\'>\0377\344\277\"\177\312\275\225\273\222\277\365\227\020\277m|&\277\024\010\032\277G\345\n?\333?,@\317_\024\2778\004\262?\t\331 ?\221\333\310?(!\265\277\035o\032?17\261>GX.\276\276\353;\277\236\363\325\277~\354k?\t\301\207\276d\235\371\277$Z\246\276\245\310\311\277\217\251$?\377M\267\276\343\356\023?\265c\003\277\003X\246?i\313\245>A\313^>\246\030\240=\313\303\034?Z\376\222?\266?\r\277`\347{\277\363\342a?\345y\261?\022\263\005?kJ\254\276\031\303:;\356\217D>\331\250\266\277\030\207:\276\316\330h\277\374\203\256=\361\034\022?\351a\032\277\376*\333?C\246{\277\220\027\266\274\233\237\310?\\\235\036?\215R\312\276\237\024\205>.S\200?\2042`\273\023(C\277\261\240\006?\304\336\204?\267\222\200?\3500\320\275\307\253D?\243:\366?+\330\246\277l\201\211>\204\231\271=\217\365\t\300\341\222+?\001\021\020>\367V\306\277\205\207\325\276\246\023\267?L\210\033\300\343\017\020\277\375\231\002\300\022\n?\275\\\377\002\277\243&\244?+B\270?\2759\214\277-aT\277\\\007\304?O\027\214\277\227yx\277\221\353\301>\014\025s\276\024\025\223?+\257\022?A\n,><].\300\021X\237\275#\267\205\277\256\340\257>\261\004\375\275G\177\275\2755\370q?\020\211}?\350\021\t?T\364V\276\255\304\203=\355\311\331?\250(\207?\223Y\003\2777\226\006\300\326\251y<\214\332\002\300\273\334\255\275\334\016}\277\326\207E?\255g\212<\321\020\261\276d\367\357\277x\200\323\277\254h?\277\247|3\277R\303\241=J\375\314\276\215\215\024?&\370\344\276\177\021a=b`\027?\342\344\256\277\373\006\250?p`h?\213\223\361\275\035\325x\275G\311:>\261\362\336\276\264a\355\276\203\277\225\276\244(I\277h\033\315>\271Y ?cF\373=\250\224\026>VP\245\277F\220\204?<\026\266>\226\177\245?\016\321\235\277\2408]\277\\\343\237<\375\307\372>\306\342\n>\033\237x\275\021ra\2773\246]\273\271\374\314\275]\241$?\355\240\307?%\025Q>;9\222\277\317\303,\27759\201?\200\264\201?0<\306>\354\272$>\307\244\311\276\374\351\376\275\026\200\"?$\357\370\277\226C\352\276\367\333U\277\206\277\241=\252X\327>\245\022\222?\225\260q\275\221\322\226?\205\264b?\372g\205?\327M/\273\275\341\034@6!\232\277\313[\213>\366\256\004\277\252\260\022\277\241sE>\341\327\331?\324\350\030?\245\273:\277\251]\200>&\226F?M\020\240?\363\021\256?\016\316\242\277C\365!?\327@\333?7k*\300\373\250{>c\302A\274\203\001L?\371S\031?R4g>H\250\314\276\0075E\276\265<&\276\003\342>>\330\267^?\004\262\205?\357\362@?\314\231:@\366+\303\277Hy\007?O\262\250\276Nk.\277\252\267e\277\264%\307\276g\262\037?\251\337\021?\305\361\341>\247v\240\276W+O\277$3\302\275\203;\210\277\260\2152?\250\\\374\276\323}\243\276s\364H?P\\a>(0\226?*\3629\276\326j\312=u\271b=eQm\277\350/\315?\260\262\233\277\252\361\302>\351\313\257?5\013\216?.\207\337\276\273L\353?\264_\350\277\214[`?\006Z~?\335\313>=\333/w\277\322\224\251?\240\2244\277\235O\217>\332e\036\277\203n!\277\365\\\033?\302Q\226\276/\320\216\275\r\007M\277\337\250\004\300\202\261\242>\036\334\324\276A0\014<P\332L\276\374\271\345\275\004\223\251>\227\027\352>\037K\006>\220\006h?\3704\212>$-\207\274\004\245(?l\335\360\276\376XC\276\337p\326>\177\371\333\277\014RY\277\013\"\007?j\002??9\273\364\276\211\346x?\215xR\276\247>\260>\261]\347>If\323\277s \233\277\251T&\275\360e\212>*\\\334\277#\244\024\276\305\336r?\302\334,\276\004\345\205\277\250\340\204\277\367\004\240?\"\023\244?\005\026,?\'\335\325\276\243|\304?i\236J?\225\254\374?\253O\214\277\311\277\223\277E\370\227\276\216\234\315\276\301:\356?\335\n\324\276\223\201R?\013\373x?\356\3056\300\272[\227>|\023G=\246|\322\277\370[\240\276\355D~?\023\322\223\276B3\275?\002?\212\276YX\305\277}.W\277J\227\303?\245\327\354=\334\3056@%\031\010@2y\t\277\345\3437\276\026\357\305>q\367V\277n\220\333\276<[\034?k\002\205\277\210\302\205\275\352\233\361>\240\017\345>\223\333\002\277\326_\206>zI\024\277 h\235?\351S5@\362Y\036>P\312\317>{O\262\276\370%I\276\265L\311>.\366\240>)/\350>\rR\022?\330+\007?\377-\331\277N\211\022\277\035\265\005>d;\231\276\274E\264\277\315\333\033?\225\271:?R\003\215>\'\312\"\300H\257c\277a\3440>m\2217\277N<\004\273\232H\353?H\226G\277\276\231\031\277\327\306k>U\332>?\324\242\337?O\234,@\313@\355?\264\242\014\300U\325\236?\374ng\277\211\t\231?\307\223\315\276\273X\340>3\266f\277:R\330>o-\341>x\220\310>|\317J\277J\032\233?\233C\313>>\374\246\277\303\327\031@|\342\023\277\362\255\235\277@\243\314\277\211\3618\277uk\000\276\016\351\231\277\204\372\"@z\262\263>\235\'\203=\376\355\352\274\322[\312?\205\tm\276\202s\027\300\323~\206?k\320*\277%\273\251\277\203<\000?\"\254\245\277\326\263X\276\240`i\275K\325\222\277\210n\336?K\320-\277\342\262s\277\245\247\257\276\330\035\000\300Y\370\236?M`\231?Y\r\333\275\336\225\244\276\350\'\212?\366\312\273\277\302v\205?f\310m?\253\311@?s\347@?\036\256\006?\026qQ\276.\372??ib\345\275Zm\371>\311\"\'?M\337w?\226\373\227>5\rb\277\211\307\277\277\260\335\033\274\322j\204?v\245~\275\266\363\r@\272\357F?7\371\"\275\200NC?7*\201\276\r\346B\2768^\211>H\270\300\277)n\207>\223\365\242\276\263\001\315>A\310\017\276\255y\273\277&\037\242?H.\204\277\221\265\333<\323\313\214>\214\263\261=\370\335}\277\274#\307>\345\371\274\276\337\2703?\357\244\037?\374\367\275\277\253\327E\277\337\"\010?Q\230\203>\244\377\"\275\227\315\305?}r\206\275\025z\025?\232i\016?\334\302\312?\254_\234\2766A\271\277-\026W\277&e\225\276\263\326%@G\372(\276VR\303\276fS[?\014.\005\277TU\260\277\021&\001@_\273>\277e\006O?5\372\210>\371\030\236<\304\366&>\n\335\n@\346\321$>K\373\370\276{\275\006@\277\224\013\276h\331\236>\317\345\243>v>&\277`_~\275}\235\347?tD\256\277 E\205\274\026b\334\275+\232\212>\304\200\306=\2230\263>\342\277\026>qW\177?\276\221\221=\303\224i>E7\263?\361`\201?\035h\023\277\270V\231?\272T\303=\023\370\213\274rP\031?\035\377\257\277\321uv\277*\263\354\276C\227\207\276Q\212\261\274\223{\201?\333ir?\227\022$\300CCl\277a\274R\277\266\242\305\276\221\032\205?>\315\002?\\h\231\277m\004\331\277\244DY\276\211\203t\276\014\225\037\277eC)?\000\210a\277\025r$<\206\014\010?\346\\\266\276x\264\377>\241\021\363\277\263E\006\300\230(\002?N85\277\313\026Q?\3050\337\277\335]\240?hN\260\277\266D\014\300\377l\241\276\3519\247\277\350\007\215\276\204\314\355>\304S\251?B\237\216?\315g\376\275\221\366x\277\000\027R?\302\371\273\275\342{\226\276\312DG?\272\212\n\277\311~\321\277\315\254\357\274\372\024\307>\374\360.?\326\350\200?\2309\036?\034\350\375\276\242/\215\276\205J\007\300Uh\301?\361\215R\277F\236\257\277y\275W?\366R\242?k\275\020\277=_\305?\032\364c>\205\267\351>\036b\370>\242\345\033\277n\320!?\237\207\275?\317I\027\277(}\355>O><\277\344\212\230?\022\020\000\277\\uJ\277\006S\363\275u\360#\277\372D)>5: ?\270_\213=\000\335l\276\013G\010\300\215\266C\277V\343\312\277\203C\211\277\367(\333>I\2746@b\317H?\211L\252\277\313\351\273>\332\274p?\322\251\312?\366(\256?_\tx\277C\001\242\276\332\200\235\276\377\263\020?b0\301=S\337C\277\350ha?mXJ\276\367\253;?j\220\206?\315vG?\310YL?\0138\003\277|Z\210?8\374\240\276\305|\031\276\330\267\022?\022\254\346\277-J\317\276Mu{>\033[#\277_\340i?\002\215\272\276j|\211?\246.\024?Uj\334>-\305\244\277\231\373\320>\233\325\300\277L\021\262\276\360\002S?\331px\277\364Z_?\361u\225= X\305\277\267z\220\277\275\227\317\277\305\232\004\277\357\255e>\224\317\320>\354`6?\302\246;\276A(4>\265\004\020@vY\314\277Q\301\371>\203\356B\277\361B\311\276\034\317u>\257\000\247\276G\036y?\311\255\240\277\250\024\311\277eE\273\277\270\2400>\337\000\204\276\346D/?\215\301)?\031\324\221>\274\002@\277U\307\013\276wb\024=\351L\030\277\020\325\245>\317\317\033>D\2068\277.\343\352\276\371\226F>\262\305\236\277\211\271\312\276\320\021e=L=\022@\006\317a?>\202\243?:1\245\276\002=\313\276{\376\037?\341!\311\276P0\n\276\374En?\241Y\234\277z\335\327\277\343\226\265\277\323\363\224?\270l\314\2778\314\261\276\314\354\377>\360+\001\277\340LR>\376\336\224\276\266\027h\276Sl\177\277\223\276/=\242\234\332\276:\227\206\277\327\205\202\277qKe\277d\020\212?\365\240\300=\037D\214\276\005\024\033?\007\242(?\307Z\376\276WS\257=\333\252+\277\342\312\264\277\323\331\302?\232\303T\276dC\242\277\233\340\205\276\300#d?_Ta\277\224\366L\277\263\262\266\276$\020\337\2750A\001\277\315\206>>\035w\342?>\217Q?\034\221~\273\272\0104\276X0\204\277\236\311\322\277\362-M\277\331W\313\277\337\375B\277\361\251.>\032!\n>\266y\342>\271\201\300\276&\342\311\276\224\340\220\277!~\337\277#\250\325>c\"\313?A\327\213?\005_`>\363\310v\274\361\252\370>\201\221\357>\326+c\277\262SP?\222\274\267\277-\2636\277\2723\373\276\236\\\023\300>M\235\276\006` ?\324\365\021?\331\222C\277s\210\210?\343|\206\277\222\363!\277\272c\220?\213\234\033\300\210\226\302>\377\321\t\277\362\237\034=\324\r\317\277\273\341\033\277\331\025\362>\023\362\232>\307\253\016?\037\337y\276\360\344\360\276\020\266\312\277\235\324`\277O_\335\276\366\354\216\276\251\233\326\277\203\377w\277\255\366\241?\344\2235\277_\241\035\277\030G3?\032\277\211?c\274a?\247\272\201?\313\301/\276[\331\177?\265\241\024\277\323L\215?\217\215\210\277\016\004\332\276\214\255o\275K\367\242\276\n\307*?\243|R?\307A\271\277\213\334\335?\263MQ?\352H\344\276\020Z\212?\306\276U>\275/\311?\340\224\307\277\002M\020\274*\370\245\276\376\324\000?\310|!\277A\032\321?\246\024\236\277\275\375\316>\243\317\013?\231\333\355\277\230\ta\277K\312\332\277\025;F\277\267TO\276\303\026\320?\205\261\010\277j\360\207>\212~\317?7c\203?/8&?\'\000\026?\024\033@?Q\256T?\340\342\002\277\320\271\331=X\225}\277\"\333\035?\313G\245\276y\311v>\264\364\261\277\271\230\215\277N\025+\277\275\240\"?Se\272\276\'\0245\277\205Q3>\035\202Z?\017\002s\277v.G\277\273qX?\027\274 ?\343\226\007?]\326\003\277\243\005\244\277i\304\216?@R[>n\231\221>\006\214z\2775Q\007\300\247\303\007\277e\340\007\300\264+\356>n>\273\2758.\303<_\3738\277\222\010\221?(\315\324\276\026{\303>ZY\304?\203\345\257?$\320D\276\333\2270=5\267\215\277\307$\311=\207\0019?\275\202\021\277.\002\252\277\323\200\014\277\301\361\235?#\227f?]\227\313=V\t\037\276b\214\230?\024\312\230\277\204\021\n=\201\321\237\277{\037\205>3\347\005>\276\371\006?\022\232H\277\272\253\357?)\035p>\213Rq?5\255\335\276 \354\270?\024\217\243\277\220r\232>6O\350\273JJ,\277\226\335\301=\243L\251>\242\376\333\275T\006\223\277\001\220\370>\000])>\257\232\005?\263B,?*\245\3619\312\274w?\365\005\266\2776\037\323;\310\000/\277R\026w\277\\\376\033?\376\013\227?\216\234\313>\324\035\270?c\r\217\277X\254\025>\345\2677?eM\010?+\263n\276_\035\237?\017\235\346\277\277\342\003?\233hj?@>>\277\350\247a?X\326\233??\026\r\276R=:\275I\262\021\277\243\222\036?3\320]?\233~\220\277\270s-@\202\002\005>\242_\345\277\347;\226?\r\371\000?\377\3257?\304\014\227?\014s>\277\342\037\204?\227\316\271>\252\274\226\277\302\317T\275d!\303\277f\200\000\276\300Po\277j\315\276>J\255\274=\014{+\277\213s\235\274\277\020<?`9>\277\357\366\344>{\250L=k\331\241\277\211\023\232=\206\200\216\277k\273t?c\304\376\2764*1?\006\027i\276m\002\035\277\210_u\277\3257I\277z\317\373\276\223\241\024?\033\367\220?\312\344\260?\0368N\277\223\375f\277p}\216\276!g\315?\257\004\345?F\301W?w\233\203?\227\351\323\277R\263\323\277$\367\230\277\252+\244\277\234\031\234?\020\273\333\276w\2076?K\tN>0\237\021\276OZ\001\277~\367\366>c\3429\277LU\265\273d}%\300\303\322O>\372\0342@\331e\347\276\235;\236\277\020(\225\277\357\252s\277\371\234Y\277&\277*?\274(u?\025\325\347\276\270\376\014\276\362\325(?\t\020z\277\036\245\022?\360\035&=\273%p?\255X\213\276\265\'\202>\271\320\010?\320%\233>\353\254\303\277\005\274 \277I\307\246\276\206O\247\277.2\226?\333\0046\277?h\355\277\243\202\253?\035>\223\277\0149W?\240\022e?,U\251?\014R7>nS\220\277\356z\204>\037W\027\277\375\311W?Hs\201?\001~\237?\253\034\353\276\312\222\027\277\331\030\363>_b\017\277\254!E?\231\347\202\277\235\360\220\275\263\346I\276\035\236w\277\351\2102\277-\336\252\277+\207\222?\344\271\251\276ue\034?JY\371\276f\035\244\277\333\013-\277\315dT?\234c\264\277\004w=\300blZ\277)\230\336\275aM\340>\236@k?q\273 \277!r7\275\000h\343\276\350\222i\277\236`\370\276\255\367\262?\037\217\260>\332]\036?&t\025\276\357?\"\277b\373\013\276\213\313\027\300\2200\234\277\302l\001@\377u\246>\032\336\332>\333\257$\277v\030\203>\217\216F\277\267\245e\276\234?\221>Cu`?W\236\010\277\2433\215?\227\220Z\276)@\222\277\240\035@?~\003:>\002\202\202\277\272\311\021\276\355\221u>x)\375?!Z\033\277l^\215\276&\232\227\274TQr?c~\203\277\237\031\200\277\026\256\313\270\213B\224\277a\233\330\2779\000\032\277\r\267/\277\240c\212\277x\006\345?$\344\276\277\r\3040?\037\266\261>S>\001?dO\213?\321\n\213?\313\247\014\277:9\036?5M\222\277l\315\313?\365\265\211?\222\356u>\344\273K\277\272l\201\277\003\216\372=t\330\312>E\014a?\361\355\314\275g\300S\276\r[\337\277\025\243\177\277\020p\313\276\353\2108\277\321N\236\277\304\301\232\277F8\003\277ZC\357>V\307\373?\370\022\327\277\365|\354?\\\371)?tq\203?^\177)\277\342\306R?\353i(\300@\310V\277\210H\234>\265\007o\277\014n\242?\375l\370\276\021\344\334\276\'\303\000\300\315\0027\277\261}\r@2\000\256>\302\324\312>2\313N>\324\010\033?\347\232\262\276!\264s>\272\306\224\276H\032z?\322\341o\276u\266;\277\200\030\\?\365\356\320>\250\326\024\277\371[+?\215\333!\300R\233b?\326\333g\276\016v\215?\315\307j>\275\322\202>\315\036\231>4\275\003\277\235{\223\277\353A\221\277\275\334B?\240\374G\277\334\230\343=\255\271\355>\214\217\207\275)\0263\277<i\207?\316\303A?R\272\225?\211&\204>\244\331\212?$\235\311?\333\033\216?\260#f\2772q\007>\256\204\241>\254\307K\277j\276\202\276\277H7??D\232>\3729c?0\212\021\300\020\r\257?ta\205?\236t\362>\331\r,\277?c\371>C\260\357\276\217\260G>\352\361\214>\020\224\346\277\007\233\377\276\244,\006?\014U\036\277G\255c\277\340\031\263>\030m\347\275\000\026w>;*\267\277\352\350=\277eG\211\277\331\013\262<\264\354\026\277\037\206\032?\024jF?m\323\242?C\352\246\275\25396\277\233m\212>O%\376>\257\375\023?Np\247\277E\201F\277]\206 ?\tB\037@r4\033=\302\247\243?x\225\t\300\324V\357\2753U\225>\006&s\277\3308#@kh\273\275AU\231=b\216[>\014\177\362>6l\335>M\350\223?\000F\001?e\324\257\274o\276\250\277\315\020>>1\305\237?\317eV?X\0079\276y\317\254?\306O\337>-S\r\277\035\353!\277\030[\030\277:\331\212;\261\010\243\277~/\\\277M\030\212\276t\221\237\277\2447\302\274G\237S?\304J\267\277\203\0217>AN<\277\230aq==\202H\274.\025\323=G\355a\277x\274o?\233\014\340>Q\317\336\277\317&\027?\254\002[=4\t\355\2768Q&\277>u\346\276{\001<?\275\300\302\277\022\332\016?\2736\242\277\004~\n=\354\240\036?\212\264\265\277\226\210\325\277\252\247\227\276@\321\325\277n\221\306?\243%\036\277Bt\327\277\203n\253>\246\322\035\300\205\'A?\007B3\276\312<{>\327\313\225?m\222\021\277b\332\236?\350\232\377>\365\377\017\277\261{\344?\344\2232\277u\266\214\276\273\352\250=\211\257\t\300\036\264\235?\3503\017?\002\232\237\276B\207\210?M\\u>j\007\322?\003\021t\276S/\010\277\255\373\341\277\252b\r?\250\350\002\277\021\033\220?j\244r\274\225\347\216\276\03372\2749\256l\276U\2450\277\254C\257\277\373k\222\277\250]8?4\242\331\275\0250s\275\202b\271?^qE>\254,\345?\332;\273\276\037?\323\276\327\2102?6\307\277>4\336}\277D\231\314\276\2436p\277\364B\313\276\276\363\035?eR\306<9\310K\277\"\344\201\276\267B\"\276\014\301\322\276\356\342`?\316j\007?H)\247>\241\037\007?8\316\257>\264L;?\260xw\2779\357Q\276,\364\\\277Y\361\270\276=7\321>a\212n> \002\227?Sx\324\275\224\'\315>\353!\021>\271K\203\277\276\271\336\276Xr6?<\233\016@\351H!\277S\367\013\276\235\343,\277x12?\321*\320?\364\265\252?\230\337\264\276\334\024\001?o\027\273\276K\307\224\277\233\032\207\277\313\223\340\276JD\316?\251\243J\275s\311k?\330G5>(i$\277\254Sh\277*f\217\277?!\005\300X\033\274\276\263{\255?\016\233:>\325/\343?\274\206\014?\362\351\256>\336c\263:i4\346>\202\224\335>\\\306\"\277\243\331\335>\355\016\246=\3204*?\240r\323?p\353\311<~\334j?\202\227\211?P$\225\276XUX>\'j\227\276\265\277\177>Xm\365?\310\007.\277\230t\\?1I\200\276\355(S\277\304\227^?qh\005@\034\364\224<$\303\212\277\203\312;\277\223\261\007\277GT\241>`\2334\277\202 8\277#\r\271>\005\226u\277\003\351e?\362\376Y?\214\234\242?\376\367\007?\266\261\230?\20694=\213\200\254?\364v\002\277\022\377\001?\013pd>\352(8\277\236\207\017?mSq\277\313G\250\276\240\325\000?\371m7?ls\321\276\316\232<?\333\2375\277W\033\n@f\205\241\277\240pR?\346:\210\277s\252\311\274N\224\222>wq\205?\034\230j?\337\013\317\276\222\257n?0\021\325=x\323y?\355\230\022@\013\364Q?9\342\034?\235\251\240?\313R\273>\360\037\242\275\263\300\016?\377\307\237?\206v\252\277\345\202\257\276X\3043\277R\374?>\274\370\336\277\312w`\276\243\200e>%\022\274\275\247W9\277\265\247\232\277*\211x\276\016s\272>\035H\363\277\177\211\211><\036\216?CxU\277k\240\004?\333v\250?N\346\260>p+\026?\026\035\347>IL\214?ep.?\370\034\207\277v\014\205\277\273P\001@\254\255\335\276\375C\263\277\315\360\276\277\307\t\227?\363\026$?DtH\277tb\323?\326\211E\276\236\241\030\277\366C\371>w{\022?F+\361\277\002C\026>\313\026\316>\374\314+?\323\235\307>\222\372+\276\177\265\023@A\001K?\347o\240?\305\210\202?\361\230\233\277\005dO?\361\367\010>\250d\207\277\\\310\203\276>\255\023@\034\023\030?\016u\243\276\202vn\276\273\236u>O\350\014\277>\216\215?\026\242\021?>C\214\277\232\216n\277V\256E\277JQ\307\276e\030\033\277\310\354^\277-h\311?\346\310\362\277\"\374\007?\035\305\207\277\\F\020\300P?k=qx\367?e9\373>S\210\325\276_\336\335\276\357\326\303\276\267\034\211?\225\253\321;D8\200?\233\023P?v\2552?h\016\237\276\233\024\303>U\212\300>\006=\320=\256z\226\277\307\240w\277-`\254\277mIM\276\336s(?\363\276\006\277\016J\344=\340\345\333\277\205\267\207=\276\254\341>\005\310\210?\256\360?\275\243t`\277\300\347\255?\002\357N?\320/s\277\322\027\302\277\375\035)?*a\270\276\364\030\231\274\027\377\255\277\026\352u\277\266\361\010\300\260\346A>\375o.\2779\363[\277\013\366\222\276i7\001\277\376\356\316?\355\177U>\013\327\346?A\021\017\276\325,\252?\352;\003@\364\217\270\277\020\326\376?\235\313*\277c\316\334>\tO\307?\247\311&\277,-\242\276\272\341a\277.\032\"\276Na\304>M\013|?\'\210V\275\035\233\246?\364\200\215\276\242l\346\276\352\'5>\017]#\300\201\230\t?mBY?n\376\267\276\225b9\2774\236\323?\214\272|?V}\363\276-V\232?\235o\207\277\234\357K\275n\267\017\277P\255\207\277=g9\277\374\304\233?b\\\020\277R\230x\277z<\246?x\304\261?\263b}>\226C\306\277\200Iy?Y\336\201\277\253\373!?\357\336\362\276\301v\233?*pP\277\033\261m\2776\331\301\276\363\354\272?2\356\223\277\361{\004?\002\260\370>\274_,?\000\334\016\277!\324\220=\343\246\361\276\037\206\214?\255s\302\277+\3558?\270\241(@\301\237n>[\213\216\277\201\257Y@\204!\364>.^T=\301yG\277+\005\203\276\277\014\366?\201\275B\277\332\004\215<#$\350\277\'\034\342?O\337\264\276r\336\377>oP\251>THU?\211\033\267\276\t\375\227>a!\373>$\0220?e2T?\354\312\355>\232e\222?\235\224 \277/8\025?\2750\275?>\3655\277\376\246\026?\311\027\242?\354\2129\277\201\242\237?\325T\021\300\373\3548?M\003\021\275A\314g>D\232A\276\363\202\273\277\320b\324\277\006K\343\277\301\211\324\276\371 \335=\016\241\240>x\266~\276GR\223\276Q\256\265\277iyP\277\306\007\232<\321\361\005?Zz\010=w\227;>\320\3372@\3342\003\27752\232\277\361/>\277\373\325\354>\3376\031?\302\274\210?}\221\270>5\224\325=\365\367\336>7\351\236>j%\027>{\233y>\003\244~\277M\332G\277\345\271j?\026D\201?\2176\"?\3034\034\277\370_\026?\373[\003\300\006\217x?\304\301\313\277\267\376\022?Z\016\266?8\007\036\275\266o\220?w\362%\277i\330\261>\276\215\"\277\223\247\254\276H(\251\277\273\352\021?K\326\326?\244q\325?\364IC>\310\267M\277y\373\347>\262?\325=+\r\352\276H\276\331\277\240\347T?\240\266\206\277\206a!?\301\n\204\277|\266\021\277\223.\241\276\315KD@\027g\314\277\332\r\220>\354\274\346=\020j\211>G\241\323>R\346\324?\246\320\310\277%\027\364?\305\003\364\276\203\254\322>!}\325\276\001\243=\276\301a\322?\036\373\037@(s\002?\230\330\000?\217\212{?o\301\020<\206r\237\277%\243\r?\353z7>#\314\215?y\221\300?\204l\003\277`\374)=\332<\036<\357X\322>\351j\r\275e\035\330?N3\274\275\267\336\216\274\316U\245\275]c\371\277\324c\355\276\031\341\236\277C\364\027>rq\302?\362\276\300\277\315\263\205\277_\246\221?\242\031\331?(TY?uM\253>z\n?\277\215~\025>N\335\216\277\312\216\t?|\261\305\276g.\325\276ev\263?\230\035w\277\327\263\007=\250Q\'\277_`\"\277\202e<\277\331;\001\300\016\023\341?*!4?C\317\271\276u\307^?\275\032\030\277\371\224\266\275v\210i\277\300J\330=\022\2763?\334\336\203>\263\"\224>\237\345|?\013\326J>\270\376\207?;\336\310\277\204/\200\277\016v\264\275v-w\277\205\251R?\271Mw\2770\025B\275\361\323\005@\200\225V\277\340\221\236\277\346>%\277\033\332j\277\'\323c\277\010X\001?nAw?[\374\030\277p\327\264\277\275\256\365?H\033o\277t\366]>\\s\370\276\230\310\262<\364\244~\277z\350\311\276z\345n=\2627\317?Ug\202?C\017\027>/\177\224>\375bW\277y\231+>5\255S\276\307n\030\276\321\240M?\261f\003?\314\357\266\276\rZ\006\275\227\237\211\275a\026\240>\030\203\214\276].f?R\3615\276\340Bv\276\035yC>_\274\031\300\274:F?\2737\330?V\252E?\347\0304\277\257\024\267\277\037\346\315\277\006\276\212>N\273\032?\347A\021\276\212\237\271\277Y-\351\272\177R\320?\376?J\276\376\200\320\276\230\n\210?0\335\003?\224\260\210\277\371\214\303?\026\346\010?S\030\312\277\365W\231?\262&\013\277\240\323\301\277?G\224\276JF&?\330\352\226\277\362\266\204\277\273\335\320\276\2427\331>\014cd?\323\216\202?\305_\243\277BO\372>\240\354\021\300\220\270\217?\260Y\262>D\235\005\300\002\'\270>c\247T@2.\314\276\262\230\254\277\2346\237\277`\0214?\2371\215\276G\031)?C\377Z\275\025\243m\277j\204\366?\001PW?\371\341\372?\\G_\2751\217C\276\r\301\027=\356\t\211?^K\226>\'\324\203\277\206\\\036\277\373{\367>\376\321\264\276$\252\225?a\001K?xv<?\342H3\276\236)\301\276o\236\272\275\321\010\272?\005\035\266\277\t\223\236?\375\2458?UFs\277\313\215\250>r$]?\022\310\333=\211\314\353>\316\344\004\300m\204\t\277X\333^>\301\r)>\312\346\350?e\214\315=n\320\030?t\004\361>c\257\323?:\337b\276\017[\241\277\232\210\366?q$\264>\226\3410\277n\355\340?\2215}\275\354|\230?\312<\305\274h\004\232\277\032\310\311?\321\026\324\277\025J\022\277\022\363\200\276\331\006K\277\315\3332?+\253\237?\207\361\375\276#\364B\276^^\266\276\nz\330\277\244@\033?\t\322Z>\224\242\206\276\213\036m\276\361\007\004\300\315\326\243\277\264\223M><\231I\277\310\357\326\276\341%\240\275\215\"\326\275\263\275\217>\263\276\036\277/\307\336=\217h(\277\277\225\177\277\223\026\214>\026\000M\277U@\004\300\376\332\212?\331K\371\276`\312%=\230`\364>\016w\267\2760\326\372>\204\004\223\276\372\244\301\277l\271\201>\271FD\275\210\r\364\276\022\265\203\277\010Bn><8Z?\2546\225\277wT\347\276\276d\'\277\245\333\026\300\261&\230?\224\367\276\277\3053\235?\336?p?\226\305L?\202V0?\020\036N\277EP\222\276s\366G?G\3113?\216\320\005?\246:\371\276\212Q\376=\300\032\302\277\034s\375\276\355\247\335>\342*\227\276\332\031\240\277f\221%@\222f\313\277\351 \261\277\022\352\023\276\342(\204\276El\234=\234&\272\277\236Ll\277w\231\260\277\366\024\326=\351_{\277W\325\265>J\317a?)\316\212\274\273\357\375=\325\252\347\277\344\226\342=v\337\031\277<b\271\276\251\220\354?\312#\001\300\3023x\277\'fX\277\035`Z\277\307\374`?\224\312\217\277D\254P\276\251\331\004?[\216\262\277\000y\317\276q\244\206\277\214\270A\277\257\325\207\277%Zh\277X[\301>\323\356p?\006)s\277\213^=\277\033\361E\277\016\026\352>P\014\361>\tf<\276\265\"\036>\206\326\021?\213\343\264>\204\3102\300\020v\270\276\201{\274\276\342\224s?\253l\313>) \327?k\014\320\277\312\220s\277?\247\201\276\366\362\000?6g\314=\220\206\256\2765Qt>9k\034@Q<\002@\366\342\356>L\007\314\2742\264\224>:i\264\276p\313\205\277\003\2556?\003\227\322>\214\230\307>\376\334\021>\032\204\350\276x3\216?\020al?f\362\366\277\241`H\277\271n\337?>:\021=\177\325.\277\247a\241?\274\277C\277,\245\364\277I\216F\276\237\222\264?\245{\264\276f6\307\277\350\266\370\276\021\242{?\207\325c?\315\3051\277\256 \253\275\225f\t>2\302c\277\'\222$?\263\025\035?z\370\232\276C\010|?8u\312?\345\211\376\277\355\233\323\277<\022^\276vC\330\276\371\'\235\277E\370m\276\3056\366\277\377\260\234?\030Q\266?\356\352\211?\223R\271?d\254\346?\230N\255>\271\"S\276\334\243\225?\375\272\366?\255\214\211?O.\261\2776\336\210\277^1v\277\037\324\007>\245\241#>k\027\237\277\266\325$?\242Y\271\277\203\'h\276\034G\301?\303\000\025\300\210\3778?bB\207?\333\363\267\276n\024\202\277$\302\035\277\272\303\367\277\375y\333\276\224\241\000\277\206H/<:iI>\232*~\277Q\203?\277\263\273\205?\036\177V?\\j\201\276mC\274?\347\"u?\206\002\211\277\325\374\223?Q=\230?\240@o>\022/\216?\332<\366\276%\337\260>6\207\207\277H\351\364\276\201k:?\037\001\000\277g\301\337>\247\207h?D\2702\277\366\370\345>\235\2017?\004 \270>\376\353\233\276<\272 \277j\377\366\275\327<\275?\014.M?Q\274\212?\254Nc\2771c\310\275Y=\315>1X\305?\232`\020>\316-q\277\355Q_\277=-\020\276e\010\274?\235\204\214>7\263\265\276Re\013\277\031X\217\276d,\251?\020\360\211\277i1f?\223\211\223\277\214NR\277$\205\206?,\244\260>\035\216\363\275\337\365\265?\016\271\217?Q\320D\277a\000\242\277\tc^?\302\223\020@\033\340\324=\016\251\343>\234\316|\277\255!\307?\302VL>!b\315\275Q\207o=\267\247\033\277f1y\277\3335[\277eL4?\231\024\203\2750\362\230\277\365\332\230>BbG\277\243w\177\277>\313\003\276\2269\216>T\201\364?\344\320\335\276g!\030\277\232\367<@E\346\024?\305V\025?\334\241s?\244x\206\277S\214r\277\251r=\275\366\374\254\277\343\333d?.R\347>\272\0361?\227$;?;xS\275+e\343\275c\350\204>\266t\014\300K\027-\277\205V/?MM\201?\031-\315\277\372w\200\2774\2050\276\236\017\263?\376f\262\276\214\2138\277\375\371\360?^\t\371<\350Z\245=\312\233\367\275B)\246<v\267\000\277\321GP\277\252Ip\275\344\301\013\300\020\276\212\276\364\350|\276C\353\256\275\213\306\n?W\177\245?P\307\342\277\207\365b\276e\371#?\003X\253?zf6\277\036\275\322\277\250\327E>\213\003\261\277\2164\271\276*F\345>\026tv?\256\334\221?q\312 ?\037\376\217\276\350\267h\277\274\371\020>B\236\t\277\306\355\006\277\017\363\212\277\372\240\202>\276\2020?\002\031#\277\353V\202?Teo?\\\374\234?\271X\272>\342\014\026>\221uC\273\372v\002\277qO\357\275\246\245\021=\0250[\276!\211\221>\276\213\324\276\364\347\032?h \025\2775\237?=\260\002\307\277n{\315=\333\360\306\276K\2361\277urZ\277L\264\224\277\031\032`\275(\313w?)i\271? \036\204?\316(R\276\001\007\261\277\363\367\242?v\264O\277\243\037z?\236\233\364?*^\002@dN\200?(\033\363=\270\202&?\213m\354>~\316\274\277p\374\206\277\225\333\205?\270\200\227?\357\370c?\022\253\203?\272t\353>\033\020&?\320\320\355>\365!\343\277R\351\241\277\332\216\354\2752C\020\277O\356\322>v\315\204\276\0309L?2\335\314\275\376\301\"\276\313|X\275\177\332\271=\271n`?C\206\t?\266jN?p\311\276\277SpT>\370\236\353\277J\237\200?+\206\014\277\262\376Z\277\311\272\377\276\023|\300\277\302\212\264>\005\231\204\276]s\000\277\220]\002>\020 \025\275\034c\336\276\264g??\367Sy?\327\267\327\277\024X\277\275\321[K\276<\255o?u\206\216\276\203\337\203\276\377\200,?t3\246>\257w\273\276 6\247?e7*>\254\205\310>\204\033\301?\000\313\307?&\231\237\277\245\364/?@[\327\277\236\241\315\275\023\014\\\277\252\323\245\275\017\235-\277\311\210\023\277\300Mn\277O\275\234?\036:\227?\270\312(\277\217\2429\277T\351\037?\230l\350\276\204\300\"?\357\306\225\277C\264h\276($\'?\246\352\212?\r\017\005@}\331\222?\265{\277?\222\301\007@D\016\202>f\353\210\276&\261\233\277&$ ?GS\254>\202\236\236?\211\367\215\277\373\177T\277\310\276\311\277\270cZ?M\356p?\340~<>,]E>&\036<>\030I\222>q\361\242?r\252\262>Z\312\203\277\005[m\277\"\007\247\276\361\301E\277+?2>\213\215\205\276t\th\276WH#\277\301\203\273\277Xk\265<NS+=\207i\000?O\253\301\276\254~\004\300\271\276\203\276\000,v\277WlG?\t$N\277\1773k?\376(\001\275\265n\200?~\243\271?&\264\210>\355\007_?\023\000\320\277\366\275\261>\271\3465>\320\030}?\007\017\265\277T\216\267\277\030\373\221\277\264\221A?\233D ?\256#\222\277\336\332\250\2779\006w?Ad\340=\271\375g?4\274\023@\024\013\024?\264\035/\277&\356~?\204\024\206>g\375\274\277\300\201+\2772N\n@\313\035\230>7\251)\277\361\320\213\277\014v\373\277\024`%?\240\210M\277\220E\216\277\267\021\202?\013\303\255\277<\326\270?\034-\317?\315\277\207\277$\250\227?\312\001\324?\231\340\274?k\347?\2779\235\240?G\270\006@\273\367\036\277\311\323\363>\3749\222\277\024\321\363\277\271\232\024?G\246\004\2773\273_\277\211\375\316\277>\277+\276+ d=\324\033\244\276\010\222\224?\355\305@\277i\3257>}E\\?\342f\352?\'n\335?Z\320I?\235A@@\344r\005>Y\371\266\274 uG\277\302\016\336>\252O\376\277eE\210\274\010\321\021=ec\224\277\036\020\246\275\351{\214>\374jV\276\024\223o\277$\326\237?\3538\275?FN\362?%\004\234>\250;*?\344\257\213?\301|\200\2760\026\200\277@\306#?\034\032\306\277\316\214\277?9\300M\276\257\305\222?\316\221K?\322\353\331=D#\344\275\363+\007@\237T\217\276\363\223\335\277\271H\236\275kZ>\277\246#o\277\223n\001@\324\252\333?:\326;=\214b\205\277t\031`>\007\273\325>\340,2>\237\330b\275\321\335\326\276\310o/@\000\031\273\276\272\010W\277\220\326\311>2\350\313=k^X?\223\246@\277\001r<?\241\021\311?3bP\2765\325_\277\342\207P\275)8\001\275_\344\224?\355\017\371\276\253\313)>\200\346\233?h\227\325\276\021\235\205?d\2426?\2450\366>\246E\003?\237\202*?\322\362\007?)\211\232\276\346\353\024>\343iE?\032\356\213?\245\312\266?\311mH=?\324t\277\335\366H\276\003~<\277\237\016\233\2779[\276?C\260*\276\313\240\031\276\235\035s\276\245;\210?\350\022\245=w`\374?\030\355\016\274p\340.?]\352\340\276s\263E?_Z\036\277e\241\t\300S\021\273\277\235S\000@R#x\276\340M\305\277\303!;\277\217-\253\277oY\201\276i}\314?\021\017\004\277\221(\315>[*\217\277\027K\346>U\220\375\276\264\225^\277\345s\214>\313{\314=\224S\202?\212x\003?\305\020\267\2766\260W?\225W\215\277\025\322\320\277\036\2648\277\326\023f\277\321\232\330>.[\272\277&\205\314\277\363\264\326?\032\240p?R\026\003\276\231_0?\207-(\277 \326f>\351\233t\2774\0205\277\017U\034>\301^\r\277\036>\314?\323\024\235?\355\240F\277\315\322\367>3\277\304=\267M\200?Om|?Ja\334>T\204\030@\325C3?\255\351\304?W\204\021\277\374\0050\277?l=?A\207V>\032\204!\276L\233\235\276\036>d@\371\222\227\276\332V\340>\237\256\301\276Xk\301?\207\276\005\300B\345\031@/\025\253\277\000\001w?\231\362v?vW\013\277\242W\207\2778;\212?x\262\251\276\300y\241>\267Q[@U\321\206\276\340/\236?7\020\375?\232\3023\276\222\002\014@\020\370\354>\222\2304?\321B\345>\260\022\300>$\023\005?u\345*\277.@\357\276\335Q\270\276\352\027\257\277tS\375\276of7\277[!\261\277F\223\231\277\351V\361?\"\017\266=\206s\325?\266\340\337\277?\002#?Gj\317?\310&\032@\206K\233>\n:\246\276i\002\204\277\202\325\256\277\n\240\351\276\263\210\350=Z\026\332\277g\337X?\336s\300\277\262\340\332\276\000\311\000\277 /\254\277-\003\201\277\252\345E\277z@d\2775\341\273>i\244f\277\350\300\r\277\300\352\245?\366\337h?\366\370K?>O\314?\314\360\307\276\223\362K>2X\213\277\376\370\263\277\324\314\017\300\030X\205=&\215P?&t\275>\271\313\334\274\336h&?\262\0225>\376w\350> \\\357\276\206\343\006\276#\252\301>wQ\253\277\343\267\363?\010v\352\276\277$\253\277\030\020\022\277\014\311\337\277\034\236\035@\342\003\253\277\232eB?\3408U\277\'7\352\276\322Rg?\351\375\r\275\335h\223=\223\3170\277B\336@?+\335\030?6` ?\315<\340?\227d\025\277\265\2402?\374[\325?1/\337\276\215\321\256\275qIM\277\345\300\234\276\270^,\277K\2305?\364q\272\277w\202\322>X\342\373\276R\347\236\276\342\213\255>\007\253\316?\257\245#?\322\037\201?\223\213\222>\346~l?\302\005\210\277uU\340>\253#H\277S\001-\276M?\037\276\362\351W?\220\376\213\276\327\257\237\277\303A\207\277B\234B\277\035L\264\277\335\226\355>\361\307\032\277^\267$?8\322B@\'2\013?c\377\210?jRD\276\337\211s\277Kt\362\275KQ\217?R\323\263=\256w\236>\241J\021\277\267\361l\277\030\377\200\277HW9\300\351\377%\277\227\"4?\223zZ?\023\357\372\276K9\262\2763x\253\277|\361\346>\337\033\346>\242Lv?\241d\314?\217\262\237\277\264D\036?6dC\2778<\'>K5\304\277aZo\277\032\204*\277\375;\320\276\246eV?,\273\027?\213lI\277\245\247&?\010I\300\275j2a\277\026\202\001\277o\372;\277Q7\242?{\016\223>\244u\321\274T\215\317>\237\224\261?&\237\247\275\024w\n\300\032<a>\317:1?\375\272\234\276\256\211\333>_[\375\277\223D\031?Q\014y?a\332\311\277HYn?\350\352\026\277\3025\305\277\254\324\370=\375\232\215\277\037o\300\275\375|k\276\004\212\r\300\004,!?:\245\356\276\214gX\277\246l\031\277DE\312\277\265n,>\203{\003\300\223\207\007>n\375\037\277o\024j?\347\243:\277\233c+?h\334\357\277x\276~\277\274\243\316?\347wZ?\033M/?T\251\013\277\235\212-\277.\223\010\300\350pl?\207f\315?\014\001\264<\353HK\277\026\330\202\277h);>\257D\017\300K\214\206\277\241H\232\276-\313M?\034NP?\327\273\333\276i\353\275\277z\252\344?ee\031\277\310\372A?\0200\202\277\006\201%\277\322\322\265?\270\275\241<\375\357\007>\223\272\332>\004\211\036\277\274\264\317\276\036\366R\276\322O\236>\344\226&?\217}\010?\324%\222\277\246\334\230>\332d\037>~b\253>\3630\260\276iFh\277L(Z\277s\216\021\277R\254\320\276\330`z\277\331_\007@\305\365\200>~\002\277?\305\314d\276\223i\232>\007\347\022?\206O;\276\201s1\277\270\006\242\276\334\323\321?\350\006`\277Z\\\021>\220X\244\276\273w\240\277\246\215\270\277\243N\222>\243\233\220?\001\330\244\276p\220\'>{\242\007?\363\023s>w\220\025?>_\001\277n\202\013?\212l\013\277x;\205\277\221_\364\277Uu{?y\014e>\352\260r?\263\024\020\276-\"\275?\273\272\377?\301K\344\277\002#\272\276\341`&\300B\210S?Dd\213\277\301\342\317>\220\227\316\2779\257\351?\333\300\223\276\025\314\275\277\255M\036\276\n\365\232=P%\322?44\237?\223\352\003\277\206\246\276\277V\356R?\364\312_>\036\313\364\277\350\244\340\277\275m\n\275\373\032}?\215Y\256\277\273\023\037?k\246\305\277\030\026\272\276:T\317?\332v\200?\325\355+?\333\256\244\275R\350\036?\301\027\351\277~L\t?\204\233w=\225\213\t=\373\177\n\275\346\020\267<p-!@\336\tr\277\033\224$\2775\325\000\300=\225$\277\324\327\242\277\266\200#>7_f\276=xo?\312\222\200\277@\033~?R\024\270>\323\032\n>\037\033Q\277\344!{\275K\360\253\277Y\030@\277\203}\355\277\032I\334\276\276\360\341>\014\235H\2776\233\023\300k[\337\274\370\307!\277j\030\224>\206\340\204\277\243\021\315?\304\027>\300`d\022?;MV\277Mg=?K\323\263\277P\254v?\326\253\020\277\273\026\266\2771\025#\274c3\016\277k\361\007\277\"\314~\277&Z~\276,=\236?\320\337\233>2D\003>Y\017\351?TW\313>H,\305>\014N\202=\362.%\276\263v\321?\305\024\026\277 \244z\275\" m\277X\364W?\230\216=?r\036B?\034<\"\277r\021Z<F\010\257\276Z^\014?\3364\264\276\261q\231=\020\237\231\277t\216o\277\230E\255?\307\362j\277\204\376\271?$S\370>\315nj\277\002M\353\276\025\276\207?\026\n\257\276`\017\016?\217\037\372\276R\223\220\277H\r\330\277\243aD>H\023@?i\313w\276\261\256\006@\372\212\212\277@\311\273\2773\3143\300\355\"[?\300\037\303\274\247\362\345?\301\021\201>#\337\232?F\345\274\276:\266\324\276\302\252l?8\306\322\275\036\220\017\277x\\\330>\340 \032?UG\200?k\232\353>\351=\344=v\257\213=\233\212(\276[\242\260>\2267\210\276z.5\277\3278\313?O5\026@\324N\201\277\"\376\350=\270\354\343?*0%\300\251\243\311\276\345\035\240?\375\2279\276?\237\363\276\334\372\240\275=\264\205\2771g7?\327\016\270\277L\372\201>\215\363\242?\316\373\030\276`\216\315>4\346\220\276\243\257\230\277\330p!\277\014\204:?\035\232\342\276\231\275\306\277\360\343\345\277\221\3469?\254G4\276v\267I\276\177\234q?0U\272>gj\355?\205\202\204\277I0\266?Bw.\277\024\021\225?\307cR\277kR\275\277\232\321E\3000\006\016@D,\311\276\276\330\233=\205\033!@^\215\035?\026+\036\276\353\013\261<\266\002\313\276\277\277e\277\"\335\177>X\355[?\312\313\235>\355\256h\275\340\353\264=\270\324\226?\377:\240\277\375\372\304\277\344]\253\277\243\247\314>\363i\236\277\224\235=?%\224\352?\"\271D\277\200\245\322>\365`\205\276\325F\306\2766\360~\275\224\213\025\277\014\3057?\220q\232\2779\224\372?`\030\374?\371\036\230\277\361\202\350\277?\341\256=\344s{\277\003\223;?bF\206\276\002\272\002?\326\316G\277\344\355\340>T\022W\276\353\324(\300%\363)\276<\344\007\300l\\s\277\232\237\311>\3759\237\277\177*.\274F\274\"?\201\366\206=R:S>\"T\303?\005\335L@\tc\225\277\020k\304>\214;t\277\036\013\310?!L\304\277x\240\256\277\001\226\317\277\321\270\236\277\266d\231?\004r\202\277\275\000c\277\306d\254?\227d\010\300\347\177-\300\023\220\031\300\0078\253>\3121x\277\326`\256>\302\322\303\276\244Pu\277\033<\033@\203\022\222\276\357\027\005@\033%\237\277\351Z\311?J|\215\277D\\\200\277:H\037\277\220\004\342\276d\202T?.\315I\277t\262\372\276v\344-\277_\246\206\277_\341\275\274\271S\027\300\245\375\322>%\312\354\277O\337\222?Y\224\005\300\200gl?\327\362\316\276\361\355\254\277/\340\337\277\247\303\236>\033\037\014\275\177\321\014?YQ\336>\037K\321\276]\023\234\277\320F\276\276\"Lk=\010\"\230>\247\324\221\276\337\351\246\276\254\333\233\276g4\030?Z\032&?JZy?\361\215\345=\001\037\372>\363!-\277H}\203\276\027\302\346?\363\234\t\277o\273,\277c1\247\275\357\267\034?{\202]?\250)%?~\361\340\276\254\331C\274\224\233\236\276\017\265\274>N\022\367=\264\'_\277a6l?\223\302~\277\324<\336\276\263\346\360\276CVO\277\246*\307\276\275\332\245?\244\304$>&\253\376\274%K\271?\007\253\311?8g\221\277\271\305\233?\314 ,=s\220\202\277Z\226\227?\027\330\241\277\311[r\276\023\341\000\300\367\034\236\276\t\306\025@\020\t\314\277i\351\217>\232\tS\277\375\351\272>\2040i\277\341\222B\277\036%V\277\262\341\264?\350\177~\277\300p\027?\216)\225\277\014\362\315\274G\324\245\276u\241\245?\020\267\365\277Y\353\346\276\261|&?\350\262I>\213\341\206>RZ\273\276\215\004\377\275\010h\320>\002O\305?`Q\217?\'\251\010\275\177J\246>m\347\242\277)B\240>r \207>\263\357\206\276\274m(<\354\033\217?\245\022p\277./\321\276\001\355K\277\210]\n\277\232\312\376\2769+\'?\212Z\013>i\310\201\277\204\027\315>h\217s>\322B\270\2750\364\316\277\330\305t\277n\262\232\277\211\301;?\211\315\246\276u\341\236\276y\024\353\276{0n\276\326)\311\276x\241H?\203\325\335?\361w\213?\262\231\231>\215`&?X4@?\215\326\002\277\220\260\002\300\007\022\253?\022#\036>\021\325=\276\234\341X\277\343\013r\277\276\017\344>m{\337\275P\227p\277w\370\210\277\006\365x>\226[\313\277:o\020@?\262\t>W\333}\276m\n\351=\371\341M>psZ\277\334\301\324\276\303\031G\277[4\223\277\023^\252?\253\3114?r\244\310\277\010K\026\277TkB>1\021\307?\004\347\304?Q\210\235?\324\267\244\277!\357j?:\021\307\277{\220\221=\224~\301?\220\344\013@\270\375\262\277\254\"X\277f\223\275\275\207\033\363>\361\260\247\276\373Yc\274<\303\362>W\227H>\007?\213\274~\312\335=\270\235\317\275o\351O\277\362\305\210>[\244\025?\325u\231\277D\326\257\277)\311\232\277\236\236\374\276\233\310\"?\375\274\366\274\022!h?KR~?p\026l\277\270@\345>\200\302\207?&E*?\316\023\222\275~\016\035?\001\267\365\276})\020>\210\007\234?w\305 ?\"\257\337?\007\223\300\277_\010\373;\230\t=?\003\227\300\276(~\221\277\366\322r?\021H-\277\251{\030\277\230v\341?\003#\273?\253\020\205?\201\221\357\274\363+x?\'\275x?\265\313L?\217\323J?\022\254\005?\310>;\276\330\\%?\r+\341\277z\231Q>@,\214\276Q5^?\266K\003\277\324\216\245?\230N\267\277\207\341\344\276\272\033\226?\'Jp\277\036\323\007@\275\334\274?!]\301?\376\2464>J\315\235?ii\023\277\007Q\267=]\210\023@\273\233\261\277\r\2763\277;\354$?\275\034\003?k\312\226\276\336\032\360=\217\306\210=\320\217\032\276\214\260@??\317j?@\234\360\277\031Y|\277\234\361\254?\003\323\277?\177\372\254?n5\231\277\3708\210?\376\363\216?)\272\233\276<\366\005\2777\300\260>\337\342\356>\233\223\223\276\ni$?\351\366\204\276\205\232\303>\246@\030\300\035$3>\023\327\246\276\204O+\277zN\216>c.C\277{ \250\276+\227\220\277\373\037\301?\364\004(=%)\036?]+\333\276\325\rq\277\263sV\274e\272\010\277\365\225g\275\023\341\307>+\256%\277#,\245?\027\265\r\277\200\321\234>.C\232\276B\250\235?\014y7\300-\314\272>\017\303\204\277\213;y\277\223>\305>E\354a\276r\335X?r/H\277\364\312\007@\025\273f?\322A\377=\274\037\271?\315\364\230?\354\243w\277\2775\251?7\300\004\277\376\036V\2770V\240?\351\272\330\277\356\ng\277\335y+\277|\231\203\275$\307v\277\010l\224\276+\317\324>\377\353\223\276z\021b\276\346\335\331=\276\375\007@\334\251A\276\316J\354\276\326\030\231>p\235\307>w\350\343\2779\362G?\334G\334\277\240\227\033\277\261\222\010\275Y\361\310\277\341\000j\277L\301}?\363\324\000\300I\247\262=\030\305\304\277\273-A\277\225\275m>S\177l\276h\341\237\276H\030\207?\206\021\211\277R\240\206>Qr\311>2%\032\277\304\370\343\277\350\021A>\355\203n?\212L\242?\311&p>/\347\216?\306\007\001@i\020\212\277\314\201w?\213\320k?\211Z\325\277mf\271?\265\377\2439\037\361\367=yy\237\277fX2?\002\301\205\277\376\247\312\277N[\213\277\357\263\237\277\374\210o\277\202\341\255>\231\314i\277M\336\347?\331\267\253>\224\r\222?|\355M\275x\265\236\276\026p\221?\201^\231\276\325\326\221<(\276\331>\306$\307\276\251$7\277?\337\234\276[\347$\277G\026\354>naA\300\232\320,@\211\013\346\277\024\203e\277|\3643\300\323&H\277\236\032\224\276\333d\303\277\354,6\277O2\255\276\245\021\342\275\037\321\344\277\032D\r?\213\253\224\277.{Z\277X\224\264\277\331s\266\276\035h\177\276y\036\"\277\344tI>\346\335\034\276>\334\355>\016)]?R\224+?\204\222i>\017\240\230\273\254\250k\277\233\304e\277?\365j?8\331@>6\350~>\2204\216\276>\275v?\344X\222\275\375\372\223?\350h\007?\321\306\302>Y\356x?\242x\016?\250\210]\2768\353\245\2777Q\366?E\231z?\250\3579\275\222\241\231\277\365\364\242\277\250,\020?\334\004.\277\250\316t?J\203\251\277\251\247\272\276\256>\254?\027Ao>x\324\264\276\246\000\035?r\324\305>\260\270,\276\227=\242?\300\271\372\277\221fQ\277\003\313\257>\r\013\300<\031|h\277\360\274\254\276\263\027^?\361r\244>M\241\311\277\327TT\277\006\212!\276\307\240q\277A\303\230?\264\242$\300|\033c\277\022\030+\300\273\277\230\276\036#\'\276:\n\001\277\271\311\001@\204\207\025\277\334\244\374?\314v\202\277].\227\276\371\200\201\276\231\265\211\277\013\370\214?k\"\362?\030z\352\276\014\371\274\277\353\'\200\276\324\377\211\276\261\000q\276\274\254\254\277\337\2628?\241\017U\277-f\227\275:`f\277%\210\304\277_GR?$\247k?R\212\010=p)\204\277\273e\222?P,4\2779\343\360>\202\251\343>-[\355\277^]\007>\177\336\033?\223\355u\275\312\2621?[7\237?\353\\\264?\227\001\323\276\265\223\250?X\377v?\247I\237>W\354\272>T\334\272?\301\347\032?\341:\204>\215\177\373=t\274\214?\326S\326?\037\001\305\277\026~\206\2773J\224\276\220L\262\277\233\312\034@\034t\341\276i\000\007\300\332b\004@/\247\302\277\n\207x?\323\345\014<\227\227\007?O\rF\277Q\252\"=j\215L>\352\346\247\277\022\004\307\277\276\350\235\277\350\276M?\277_\006\275\376\303\303>?\360+?X\323\357>-<X\277\217o\037\277:\244\216=U)\034\276\367,\220>\312\235b\277\214\244Z@\251)y?\315\241\003\277;P\206\275\027\242\020\277\246f\276?\1774\263>H\377\224>\231\235\022?\333\265]>\024W\244>\2379f?\310\264s?\205\022\n\277_-E\2770\357\016?\333B\355\2764\233\224?g\324\230?\345\233\330?\372TK?\340.`?9\351%\276\223\003^?wX\253\277<\024\000?\265\340\261\277&#\265?Zl\273>\004\250\201?[F\233>l\227\371?c\005\257?\036\375\236>\260\207{\277\001\267*\276\014p.\276\002\320\025?.\357\037=\030B\344\276!\335\365<\356\345\320>\215;\303>\273x\262;\266\255\354\276J4=\277\025\364\254\276\323\202\276>\341~\235?\346R>>kL\305\276\2178!\277\325\316W\276\345o\254?\257\206\217\277\364\022\235?&\347T>\222\003\312?\034K\'\277\\v\315?9\025n\277]*\316>BM\344=C\346\032>\311o\360\274q\341\251?\317\324\027\277\021\306\031\276\233\205\030?6\263\022?&PV>\'\241\353?\312]\032\277\356\301\225>\372*\237?^L\030>\010y\212?\342+\021\2775\266\235?\323%\340\275{\035P?[\325c>.\241\305?\310\016\205?\237\013\221\277K\264\306\275\330\241}\277u0\327?m!\034>\344\315\314\2761\342\036\277g^\032>\004\346m?\004c\246?Y.\260\276 \200m>\263\263\266?\034\334s\277\263\002g?\027T,\277\224]d?\2206\327?r\207\242\276\004}\265\276\255\347\017\300\374\305\300?u\021\204\277\005\025\350>-\177\304\277\304|\222\276yB\212?d\273\030@4\034\340>\347v\204?\217\343<\277U\206O?\000\003\026>T\010\232\277@\247\210\277\221o\271\277\367\237\325?\302<\201\277~\254\332?\244\345`?\356\001\210?\316\034\334\276\271f\365>\346\217\213\277{\001\n@\n\221\251\277|\340\316>\270p\211\275\024\274\247\277\346\035\030>\034\312\035?\263\316\247>r\255\215\276!\264\337>x\025\237?\336F\003\277\037\321\263\277F\035\214>\235\370\242?\345\027\314\273/\242\201?\371y\247?\256\343\277?]~\370\276\032\020\331\274P\225\010@^\223\277\277gF0?\265X\217\277\245\274\306\276\275L\232\276r\271~?\220\304\342\277\221\005\004?\242\000/\277\2602\306\276\375h\224>\004\224\303?J\373\206\277\300\317[?\341G\007?\247\274X>\376\3435?\313\372\217\276\333\362P>5\343\206\275\201^*>\227]\004>\237rv?\326\262\250>\300F\353>%5\022\300V4\316?i\032\032\277PX\332\2769\360\027\277\227\241\020\276>\267\346\276IS\273=\006r8\277\207j\013>z\271\323?\264\210\206?\275\250\242<\355\301\004=\360\236\240\276\232`\253\277\205\373+?\315\260\354\276.\235\262?\330\\y\277R\243\017\277]\346\225\273{ 